node {
  name: "global_step/Initializer/zeros"
  op: "Const"
  attr {
    key: "_class"
    value {
      list {
        s: "loc:@global_step"
      }
    }
  }
  attr {
    key: "_output_shapes"
    value {
      list {
        shape {
        }
      }
    }
  }
  attr {
    key: "dtype"
    value {
      type: DT_INT64
    }
  }
  attr {
    key: "value"
    value {
      tensor {
        dtype: DT_INT64
        tensor_shape {
        }
        int64_val: 0
      }
    }
  }
}
node {
  name: "global_step"
  op: "VariableV2"
  attr {
    key: "_class"
    value {
      list {
        s: "loc:@global_step"
      }
    }
  }
  attr {
    key: "_output_shapes"
    value {
      list {
        shape {
        }
      }
    }
  }
  attr {
    key: "container"
    value {
      s: ""
    }
  }
  attr {
    key: "dtype"
    value {
      type: DT_INT64
    }
  }
  attr {
    key: "shape"
    value {
      shape {
      }
    }
  }
  attr {
    key: "shared_name"
    value {
      s: ""
    }
  }
}
node {
  name: "global_step/Assign"
  op: "Assign"
  input: "global_step"
  input: "global_step/Initializer/zeros"
  attr {
    key: "T"
    value {
      type: DT_INT64
    }
  }
  attr {
    key: "_class"
    value {
      list {
        s: "loc:@global_step"
      }
    }
  }
  attr {
    key: "_output_shapes"
    value {
      list {
        shape {
        }
      }
    }
  }
  attr {
    key: "use_locking"
    value {
      b: true
    }
  }
  attr {
    key: "validate_shape"
    value {
      b: true
    }
  }
}
node {
  name: "global_step/read"
  op: "Identity"
  input: "global_step"
  attr {
    key: "T"
    value {
      type: DT_INT64
    }
  }
  attr {
    key: "_class"
    value {
      list {
        s: "loc:@global_step"
      }
    }
  }
  attr {
    key: "_output_shapes"
    value {
      list {
        shape {
        }
      }
    }
  }
}
node {
  name: "global_step/IsVariableInitialized"
  op: "IsVariableInitialized"
  input: "global_step"
  attr {
    key: "_class"
    value {
      list {
        s: "loc:@global_step"
      }
    }
  }
  attr {
    key: "_output_shapes"
    value {
      list {
        shape {
        }
      }
    }
  }
  attr {
    key: "dtype"
    value {
      type: DT_INT64
    }
  }
}
node {
  name: "global_step/cond/Switch"
  op: "Switch"
  input: "global_step/IsVariableInitialized"
  input: "global_step/IsVariableInitialized"
  attr {
    key: "T"
    value {
      type: DT_BOOL
    }
  }
  attr {
    key: "_output_shapes"
    value {
      list {
        shape {
        }
        shape {
        }
      }
    }
  }
}
node {
  name: "global_step/cond/switch_t"
  op: "Identity"
  input: "global_step/cond/Switch:1"
  attr {
    key: "T"
    value {
      type: DT_BOOL
    }
  }
  attr {
    key: "_output_shapes"
    value {
      list {
        shape {
        }
      }
    }
  }
}
node {
  name: "global_step/cond/switch_f"
  op: "Identity"
  input: "global_step/cond/Switch"
  attr {
    key: "T"
    value {
      type: DT_BOOL
    }
  }
  attr {
    key: "_output_shapes"
    value {
      list {
        shape {
        }
      }
    }
  }
}
node {
  name: "global_step/cond/pred_id"
  op: "Identity"
  input: "global_step/IsVariableInitialized"
  attr {
    key: "T"
    value {
      type: DT_BOOL
    }
  }
  attr {
    key: "_output_shapes"
    value {
      list {
        shape {
        }
      }
    }
  }
}
node {
  name: "global_step/cond/read"
  op: "Identity"
  input: "global_step/cond/read/Switch:1"
  attr {
    key: "T"
    value {
      type: DT_INT64
    }
  }
  attr {
    key: "_output_shapes"
    value {
      list {
        shape {
        }
      }
    }
  }
}
node {
  name: "global_step/cond/read/Switch"
  op: "RefSwitch"
  input: "global_step"
  input: "global_step/cond/pred_id"
  attr {
    key: "T"
    value {
      type: DT_INT64
    }
  }
  attr {
    key: "_class"
    value {
      list {
        s: "loc:@global_step"
      }
    }
  }
  attr {
    key: "_output_shapes"
    value {
      list {
        shape {
        }
        shape {
        }
      }
    }
  }
}
node {
  name: "global_step/cond/Switch_1"
  op: "Switch"
  input: "global_step/Initializer/zeros"
  input: "global_step/cond/pred_id"
  attr {
    key: "T"
    value {
      type: DT_INT64
    }
  }
  attr {
    key: "_class"
    value {
      list {
        s: "loc:@global_step"
      }
    }
  }
  attr {
    key: "_output_shapes"
    value {
      list {
        shape {
        }
        shape {
        }
      }
    }
  }
}
node {
  name: "global_step/cond/Merge"
  op: "Merge"
  input: "global_step/cond/Switch_1"
  input: "global_step/cond/read"
  attr {
    key: "N"
    value {
      i: 2
    }
  }
  attr {
    key: "T"
    value {
      type: DT_INT64
    }
  }
  attr {
    key: "_output_shapes"
    value {
      list {
        shape {
        }
        shape {
        }
      }
    }
  }
}
node {
  name: "global_step/add/y"
  op: "Const"
  attr {
    key: "_output_shapes"
    value {
      list {
        shape {
        }
      }
    }
  }
  attr {
    key: "dtype"
    value {
      type: DT_INT64
    }
  }
  attr {
    key: "value"
    value {
      tensor {
        dtype: DT_INT64
        tensor_shape {
        }
        int64_val: 0
      }
    }
  }
}
node {
  name: "global_step/add"
  op: "Add"
  input: "global_step/cond/Merge"
  input: "global_step/add/y"
  attr {
    key: "T"
    value {
      type: DT_INT64
    }
  }
  attr {
    key: "_output_shapes"
    value {
      list {
        shape {
        }
      }
    }
  }
}
node {
  name: "tensors/component_0"
  op: "Const"
  device: "/device:CPU:0"
  attr {
    key: "_output_shapes"
    value {
      list {
        shape {
          dim {
            size: 1192
          }
        }
      }
    }
  }
  attr {
    key: "dtype"
    value {
      type: DT_DOUBLE
    }
  }
  attr {
    key: "value"
    value {
      tensor {
        dtype: DT_DOUBLE
        tensor_shape {
          dim {
            size: 1192
          }
        }
        tensor_content: "UUUUUU\375?\000\000\000\000\000\000\320?\000\000\000\000\000\200,@\253\252\252\252\252\252\372?UUUUUU\305?UUUUU\325$@\315\314\314\314\314\314\004@UUUUUU\325?UUUUUU\365?\000\000\000\000\000\000\000\000\000\000\000\000\000@3@UUUUUU\371?UUUUUU\305?\254\252\252\252\252j;@\000\000\000\000\000\0001@\000\000\000\000\000\000\026@\253\252\252\252\252\252\023@\000\000\000\000\000\000\370?UUUUUU\305?\266m\333\266m\333\034@TUUUUU,@\321E\027]t\3211@\000\000\000\000\000\200\\@\000\000\000\000\000\000%@\000\000\000\000\000\000\340?\000\000\000\000\000\000\021@O\354\304N\354DA@\000\000\000\000\000\000\004@\000\000\000\000\000\000\024@\000\000\000\000\000\000\025@\000\000\000\000\000\000\025@wwwwww4@\254\252\252\252\252\252\033@\000\000\000\000\000\000\023@\000\000\000\000\000\2001@\000\000\000\000\000\000\004@\254\252\252\252\252\252(@\000\000\000\000\000\000\360?\000\000\000\000\000\000\320?\254\252\252\252\252\2527@\252\252\252\252\252\252\010@UUUUUU\265?\000\000\000\000\000\200!@UUUUU\325#@\254\252\252\252\252\252\034@\000\000\000\000\000\000\026@TUUUU\325*@\000\000\000\000\000\000\000\000TUUUUU\027@\000\000\000\000\000\000\035@\000\000\000\000\000\000\020@UUUUUU\003@\000\000\000\000\000\000\000\000\000\000\000\000\000\000\000\000\253\252\252\252\252\252\332?\253\252\252\252\252\252\016@\000\000\000\000\000\000(@\000\000\000\000\000\000$@\254\252\252\252\252\252\026@\000\000\000\000\000\000\000\000\000\000\000\000\000\000\370?\254\252\252\252\252\252\032@\000\000\000\000\000\000\006@\253\252\252\252\252\252\022@\321E\027]t\321\365?UUUUUU\022@UUUUUU#@\000\000\000\000\000\000\340?\253\252\252\252\252\252\342?\000\000\000\000\000\000\000@\000\000\000\000\000\000\006@UUUUUU\371?\000\000\000\000\000\000\000\000\000\000\000\000\000\000\020@\000\000\000\000\000\000\000\000\000\000\000\000\000\000\000\000\000\000\000\000\000\000\360\277\000\000\000\000\000\000\"@UUUUUU\005@\000\000\000\000\000\000\010@\252\252\252\252\252\252\014@UUUUUU\355?\000\000\000\000\000\000\000\000b\'vb\'v$@\000\000\000\000\000\000 @\252\252\252\252\252\252\010@UUUUUU\003@\253\252\252\252\252\252\022@\253\252\252\252\252\252\352?\254\252\252\252\252\252\025@UUUUUU\371?\000\000\000\000\000`G@\254\252\252\252\252\032X@\253\252\252\252\252\352d@UUUUUU\375?\000\000\000\000\000\000\020@\252\252\252\252\252\252\004@\222$I\222$I\"@\000\000\000\000\000\200$@\000\000\000\000\000\000\004@UUUUUU\021@UUUUUU\265?\000\000\000\000\000\000\360?\000\000\000\000\000\0008@\000\000\000\000\000\000\364?\253\252\252\252\252\252\366?UUUUUU\t@UUUUUU%@\000\000\000\000\000\000\364?\252\252\252\252\252\252\004@UUUUUU\020@\253\252\252\252\252\252\332?\254\252\252\252\252\252\036@\000\000\000\000\000\000\370?\253\252\252\252\252\252\332?\3448\216\3438\216/@\253\252\252\252\252\252\342?\000\000\000\000\000\000)@TUUUUU\032@\000\000\000\000\000\000\000\000UUUUUU#@\000\000\000\000\000\000*@DDDDDD\020@\000\000\000\000\000\000\360?\023;\261\023;\2618@\254\252\252\252\252\252\035@\253\252\252\252\252\252\376?\000\000\000\000\000\000\025@\000\000\000\000\000\000\002@\253\252\252\252\252\252\020@UUUUUU\265?\000\000\000\000\000\000\000\000\000\000\000\000\000\000\000\000\000\000\000\000\000\300<@\000\000\000\000\000\200#@\000\000\000\000\000\0005@UUUUUU!@\253\252\252\252\252\252\362?\000\000\000\000\000\240K@TUUUU\2252@\000\000\000\000\000\000\374?\000\000\000\000\000\000\021@\000\000\000\000\000\000\000@\000\000\000\000\000\000\000\000\253\252\252\252\252J@@\253\252\252\252\252*!@\254\252\252\252\252\252&@\254\252\252\252\252\252.@\000\000\000\000\000\000\370?\000\000\000\000\000\000\036@UUUUUU\361?\000\000\000\000\000\000\000\000\000\000\000\000\000\000\016@\000\000\000\000\000\000\360?\000\000\000\000\000\000\000\000\000\000\000\000\000\000\000\000\000\000\000\000\000\200!@\000\000\000\000\000\0004@\034\307q\034\307q\314?\000\000\000\000\000\000\370?\000\000\000\000\000\000\340?\253\252\252\252\252\252\016@ffffff\002@\000\000\000\000\000\000$@\000\000\000\000\000\000\364?\254\252\252\252\252*,@UUUUUU\022@\000\000\000\000\000\000\000\000UUUUUU\365?\000\000\000\000\000\000\000\000\000\000\000\000\000\000\000\000\000\000\000\000\000\000\000\000UUUUUU\375?UUUUUU\375?UUUUUU\022@\254\252\252\252\252**@UUUUUU\007@TUUUU\2256@\253\252\252\252\252\252\023@\000\000\000\000\000\000\000\000UUUUUU\325?UUUUUU @\000\000\000\000\000\000\000@TUUUUU*@TUUUU\025?@TUUUUU4@\000\000\000\000\000\000\000\000UUUUU\325 @\000\000\000\000\000\000\000\000UUUUUU\365?\000\000\000\000\000\000\000\000\000\000\000\000\000\000\002@\000\000\000\000\000\000\000\000\000\000\000\000\000\000\000\000\254\252\252\252\252\252%@\000\000\000\000\000\000\000@\000\000\000\000\000\000\000\000\253\252\252\252\252\252\024@\000\000\000\000\000\000\374?\254\252\252\252\252\252\034@\000\000\000\000\000\000\024@\253\252\252\252\252\252\362?\307q\034\307q\034!@\000\000\000\000\000\000\320?UUUUUU\013@\253\252\252\252\252\nB@\000\000\000\000\000\000\n@UUUUUU\325?\000\000\000\000\000\000\000\000\315\314\314\314\314\314A@\000\000\000\000\000\000\000@\253\252\252\252\252\252\021@UUUUUU\013@TUUUU\325,@\000\000\000\000\000@4@\000\000\000\000\000\000\000\000\000\000\000\000\000\000\350?\000\000\000\000\000\000,@\000\000\000\000\000\000\360\277\252\252\252\252\252\252\002@UUUUUU\003@\245\245\245\245\245\245H@\252\252\252\252\252\252\002@\000\000\000\000\000\000\024@TUUUU\2253@UUUUUU\007@\252\252\252\252\252\252\000@\000\000\000\000\000\000\000\000UUUUUU\345?UUUUUU\345?\252\252\252\252\252\252\000@\252\252\252\252\252\252\006@333333!@UUUUUU\265?UUUUUU\361?\254\252\252\252\252\252)@\000\000\000\000\000\000*@\315\314\314\314\314\314,@\000\000\000\000\000\000\000\000\000\000\000\000\000\000-@\000\000\000\000\000\000\320?\253\252\252\252\252j1@\000\000\000\000\000\000\006@\000\000\000\000\000\000%@UUUUUU\361?\253\252\252\252\252*$@\254\252\252\252\252\252\032@\000\000\000\000\000\000\374?\000\000\000\000\000\000\340?TUUUUU/@\000\000\000\000\000\3009@\000\000\000\000\000\000\027@\333\266m\333\266m\003@\254\252\252\252\252\252\037@\253\252\252\252\252\252\372?\222$I\222$I\362?UUUUUU\325?UUUUUU\375?UUUUUU\345?\254\252\252\252\252\252(@UUUUUU\305?\252\252\252\252\252\252\n@\000\000\000\000\000\000\000\000\000\000\000\000\000\200(@UUUUUU\355?\000\000\000\000\000\000\000\000\000\000\000\000\000\000\'@\254\252\252\252\252j;@\254\252\252\252\252\252\025@\000\000\000\000\000\000!@TUUUU\325(@\000\000\000\000\000\000\000\000UUUUUU\365?\000\000\000\000\000\200%@TUUUUU2@\000\000\000\000\000\000\036@\254\252\252\252\252\252*@\253\252\252\252\252\252\352?\000\000\000\000\000\000\000\000\261\023;\261\023;\t@\000\000\000\000\000\000\022@\253\252\252\252\252*1@UUUUUU\021@\000\000\000\000\000\000X@\000\000\000\000\000\000\350?\253\252\252\252\252\252\362?UUUUUU%@\000\000\000\000\000\000\000\000\000\000\000\000\000\000\000\000TUUUUU<@\000\000\000\000\000\000(@\266m\333\266m\333\n@\000\000\000\000\000\000\364?\000\000\000\000\000\000 @\253\252\252\252\252\252\352?\252\252\252\252\252\252\006@UUUUU\265A@\253\252\252\252\252*#@TUUUU\225=@\000\000\000\000\000\000\000\000\000\000\000\000\000\000\000@\000\000\000\000\000\000\031@:\261\023;\261\023\037@\000\000\000\000\000\000\350?\000\000\000\000\000\200)@\000\000\000\000\000\000\000@\000\000\000\000\000\000\364?\000\000\000\000\000\000\010@\000\000\000\000\000@C@\000\000\000\000\000\000\000\000\253\252\252\252\252* @TUUUU\2259@\252\252\252\252\252\252\006@\000\000\000\000\000\000\000\000UUUUUU\361?\000\000\000\000\000\000\034@\000\000\000\000\000\000\000\000UUUUUU#@n\333\266m\333\266\021@UUUUUU\355?\000\000\000\000\000\000\026@TUUUU\325*@UUUUUU\375?333333\037@\000\000\000\000\000\000\000\000\000\000\000\000\000\000\010@TUUUU\225U@UUUUUU\265?\252\252\252\252\252\252\002@\000\000\000\000\000\000\000\000\000\000\000\000\000\000\002@\252\252\252\252\252\252\010@\253\252\252\252\252\252\376?\000\000\000\000\000\000\010@UUUUUU\020@\000\000\000\000\000\000\000\000333333\033@UUUUUU\025@\000\000\000\000\000\000\002@UUUUUU\003@\253\252\252\252\252\252\376?\000\000\000\000\000\000\360\277]t\321E\027]\024@\000\000\000\000\000\000\000\000\000\000\000\000\000\000\320?I\222$I\222\244S@\000\000\000\000\000\000\034@\000\000\000\000\000\000\360\277\000\000\000\000\000\2003@UUUUUU\361?\000\000\000\000\000\000\000\000\000\000\000\000\000\000\010@\000\000\000\000\000\000\000\000\000\000\000\000\000@2@E\027]t\321E\007@UUUUUU\022@\000\000\000\000\000\000\030@\000\000\000\000\000\000\000\000\000\000\000\000\000\000\000\000\000\000\000\000\000\000\000\000\000\000\000\000\000\000\320?\000\000\000\000\000\000\340?\254\252\252\252\252*.@\254\252\252\252\252\252\026@UUUUUU\361?\253\252\252\252\252\312A@TUUUUUC@\253\252\252\252\252\252\342?\000\000\000\000\000\000\000\000\253\252\252\252\252\252\362?\000\000\000\000\000\000\021@\254\252\252\252\252\252\030@\000\000\000\000\000\000\014@\000\000\000\000\000\000\006@\000\000\000\000\000\000\000\000\252\252\252\252\252\252\002@\033\312k(\257\241.@\254\252\252\252\252\252\026@\000\000\000\000\000\000\004@\254\252\252\252\252\2529@\254\252\252\252\252\252\'@\000\000\000\000\000\000\320?\254\252\252\252\252*-@\000\000\000\000\000\200(@UUUUU\325$@ffffff\022@\000\000\000\000\000\0006@\253\252\252\252\252\252\021@\000\000\000\000\000\000\010@\253\252\252\252\252\252\372?\254\252\252\252\252\252\036@\253\252\252\252\252\252\016@UUUUUU\021@\254\252\252\252\252\252%@\252\252\252\252\252\252\000@\253\252\252\252\252\022d@UUUUUU\345?\253\252\252\252\252\3524@UUUUUU1@\000\000\000\000\000\000\026@\222$I\222$I\016@\000\000\000\000\000\000(@UUUUUU\365?\000\000\000\000\000\000\004@TUUUUU(@\025;\261\023;1E@UUUUUU\365?\315\314\314\314\314\314$@\000\000\000\000\000\000\004@\252\252\252\252\252\252\004@\000\000\000\000\000\000\364?\000\000\000\000\000\000\000\000TUUUUU\030@UUUUUU\001@UUUUUU\365?UUUUUU\005@TUUUUU5@\000\000\000\000\000\000\000\000\000\000\000\000\000\200+@\000\000\000\000\000\000\037@\000\000\000\000\000\000\026@\321E\027]t\321\005@\254\252\252\252\252:[@\000\000\000\000\000\000\360?UUUUUU\265?\353\304N\354\304N,@UUUUUU\361?UUUUUU\017@TUUUUU-@\000\000\000\000\000\000\340?\000\000\000\000\000\000\370?ffffff\006@\252\252\252\252\252\252\004@UUUUUU\375?\254\252\252\252\252\252%@\000\000\000\000\000\000\000\000\000\000\000\000\000\000\000\000\000\000\000\000\000\000\000\000\232\231\231\231\231\231\351?\253\252\252\252\252\252\372?\000\000\000\000\000\000\370?\000\000\000\000\000\000\000@\000\000\000\000\000\000\006@\000\000\000\000\000\000*@\000\000\000\000\000\000\023@UUUUUU\345?\000\000\000\000\000\000\320?\253\252\252\252\252\252\342?UUUUUU\325?\253\252\252\252\252\252!@\000\000\000\000\000\000\320?\000\000\000\000\000\000\000\000\253\252\252\252\252\252\016@\000\000\000\000\000\000\350?\000\000\000\000\000\000\021@\253\252\252\252\252\3520@\000\000\000\000\000@U@UUUUUU\375?UUUUUU\375?\000\000\000\000\000\000\010@TUUUUU\026@\252\252\252\252\252\252\006@UUUUUU\325?\000\000\000\000\000\000\024@\000\000\000\000\000\000\027@\222$I\222$I\322?\252\252\252\252\252\252\002@\000\000\000\000\000\200&@\000\000\000\000\000\000\350?TUUUU\3253@\232\231\231\231\231\231\371?\254\252\252\252\252\252\034@TUUUUU\'@\000\000\000\000\000\000\026@\000\000\000\000\000\200+@UUUUUU\017@UUUUUU\325?\000\000\000\000\000\000\034@\000\000\000\000\000\000\340?\000\000\000\000\000\000\026@\000\000\000\000\000\000\"@\000\000\000\000\000\000\000\000\000\000\000\000\000\0007@fffff\346F@\000\000\000\000\000\000\000@\000\000\000\000\000\000\025@\000\000\000\000\000\000\340?\000\000\000\000\000\000\000\000\000\000\000\000\000\000\000\000\000\000\000\000\000\000H@\253\252\252\252\252\252!@UUUUUU\355?TUUUUU*@\000\000\000\000\000\000\000\000\000\000\000\000\000\000\034@UUUUUU\365?TUUUU\325%@UUUUUU\013@\253\252\252\252\252\252\362?\000\000\000\000\000\2000@\253\252\252\252\252\252\342?\000\000\000\000\000\240D@\253\252\252\252\252\252\362?UUUUUU\345?Cy\r\3455\224\023@UUUUUU\023@\232\231\231\231\231\231\371?\000\000\000\000\000\000\014@\254\252\252\252\252\252\031@\254\252\252\252\252\252\'@\254\252\252\252\252\252\034@TUUUU\3256@\000\000\000\000\000\000\035@\000\000\000\000\000\000\000@\000\000\000\000\000\0000@UUUUUU\005@\000\000\000\000\000\000\000\000UUUUUU\345?TUUUUuL@UUUUUU\345?ffffff\002@UUUUUU\325?\000\000\000\000\000@8@\000\000\000\000\000\000\002@\000\000\000\000\000\000\000\000\000\000\000\000\000\000\360\277\000\000\000\000\000\000\000@UUUUUU\013@\252\252\252\252\252\252\006@\000\000\000\000\000\000\000\000\254\252\252\252\252\252\035@\000\000\000\000\000\000\000\000\000\000\000\000\000\000\360\277\000\000\000\000\000\000&@\000\000\000\000\000\000\000\000\000\000\000\000\000\000\370?\252\252\252\252\252\252\004@\000\000\000\000\000\000\022@\000\000\000\000\000\000\000\000\000\000\000\000\000\000\022@\273\350\242\213.\272\030@\000\000\000\000\000\000\000\000\000\000\000\000\000\200\"@\254\252\252\252\252\252&@333333\343?\000\000\000\000\000\000\000@\253\252\252\252\252jC@\000\000\000\000\000\000\020@\000\000\000\000\000\0002@\000\000\000\000\000\000\000\000UUUUUU!@\000\000\000\000\000\000\340?\232\231\231\231\231\231\311?\000\000\000\000\000\000\370?\253\252\252\252\252\252\332?\253\252\252\252\252\252\024@UUUUUU\001@UUUUUU\375?\000\000\000\000\000\000\320?\000\000\000\000\000\240E@\254\252\252\252\252\252\032@TUUUU\0258@\000\000\000\000\000\000\036@TUUUU\325,@\000\000\000\000\000\000\000\000\315\314\314\314\314\314\024@\000\000\000\000\000\000\320?\000\000\000\000\000\000\n@\000\000\000\000\000\000\026@UUUUUU\355?UUUUUU\007@\000\000\000\000\000\000\020@\034\307q\034\307q\020@\000\000\000\000\000\000\000\000UUUUUU\003@UUUUUU\345?\334\266m\333\266m\027@\000\000\000\000\000\000\033@\253\252\252\252\252\252\332?UUUUUU\345?\000\000\000\000\000\000\340?\000\000\000\000\000\000\360\277TUUUUU\033@\253\252\252\252\252\252\366?\253\252\252\252\252\252\342?\000\000\000\000\000\000\000\000TUUUUU\033@\254\252\252\252\252\252%@\000\000\000\000\000\000\000\000TUUUU\325/@\000\000\000\000\000\000\000@\000\000\000\000\000\000\034@\253\252\252\252\252\2521@UUUUU%R@\253\252\252\252\252\252\332?\333\266m\333\266m\333?\000\000\000\000\000\300a@\000\000\000\000\000\000\010@UUUUUU\325?\000\000\000\000\000\000\370?UUUUUU\305?\000\000\000\000\000\300<@\000\000\000\000\000\000\027@\000\000\000\000\000\000\002@\000\000\000\000\000\000C@UUUUUU\r@\000\000\000\000\000\000\360?UUUUUU\375?UUUUUU\005@\253\252\252\252\252\252\023@\000\000\000\000\000\000\000\000\000\000\000\000\000\000\027@\000\000\000\000\000\000\000\000\000\000\000\000\000\000&@\000\000\000\000\000\000*@UUUUUU\022@\000\000\000\000\000\200$@\000\000\000\000\000\000\000\000\253\252\252\252\252\252\"@\000\000\000\000\000\000\000\000\000\000\000\000\000\000\000\000\000\000\000\000\000\000\000\000\000\000\000\000\000\000\010@UUUUUU\361?TUUUUU\'@\252\252\252\252\252\252\002@\355\304N\354\304N\030@\000\000\000\000\000\000\000\000\000\000\000\000\000\200,@\252\252\252\252\252\252\006@\000\000\000\000\000\000\000\000\000\000\000\000\000\000\370?\000\000\000\000\000\000%@\000\000\000\000\000\000\000\000UUUUUU\365?\000\000\000\000\000\000\000\000\000\000\000\000\000\000\032@\000\000\000\000\000\000\000\000\253\252\252\252\252*!@\252\252\252\252\252\252\010@\253\252\252\252\252\252\342?\000\000\000\000\000\000\000\000\000\000\000\000\000\000\000\000\000\000\000\000\000\000\350?\000\000\000\000\000\000\000\000UUUUUU\365?\000\000\000\000\000\000\000\000\253\252\252\252\252*#@\000\000\000\000\000\000\002@UUUUUU\345?\000\000\000\000\000\200\020@\000\000\000\000\000\000\023@TUUUUU,@\252\252\252\252\252\252\004@\000\000\000\000\000\000\374?\000\000\000\000\000\000\360?\000\000\000\000\000\000\020@\253\252\252\252\252\252\021@UUUUUU\375?TUUUUU\032@\253\252\252\252\252\252\362?\000\000\000\000\000\000\000@UUUUUU\355?TUUUU\225\\@UUUUUU\"@\253\252\252\252\252*%@\222$I\222$I\"@\000\000\000\000\000\2006@\000\000\000\000\000\000\000\000\253\252\252\252\252\252\362?TUUUU\325%@TUUUU\225=@\253\252\252\252\252\252\332?\000\000\000\000\000\000\000\000\000\000\000\000\000\000\016@\000\000\000\000\000\000\340?\000\000\000\000\000\000\000\000TUUUUU\037@UUUUUU\345?\000\000\000\000\000\000\025@UUUUUU\305?333333\025@\000\000\000\000\000\000\000\000\254\252\252\252\252\252\'@\253\252\252\252\252\252\362?UUUUUU\371?\334\266m\333\266\355Z@\000\000\000\000\000\000\020@\000\000\000\000\000\000\000\000\000\000\000\000\000\000\374?\000\000\000\000\000\000\360?\000\000\000\000\000\000\020@\000\000\000\000\000\3002@\000\000\000\000\000\000\000\000\000\000\000\000\000\000\000\000\252\252\252\252\252\252\n@\000\000\000\000\000\000\027@\253\252\252\252\252\252\332?\000\000\000\000\000\000\000\000\237\330\211\235\330\211\355?UUUUUU\005@\252\252\252\252\252\252\014@UUUUUU$@\000\000\000\000\000@7@\000\000\000\000\000\000\000\000ffffff\016@UUUUUU\325?\000\000\000\000\000\3001@UUUUUU\003@\000\000\000\000\000@1@\000\000\000\000\000\000\034@\000\000\000\000\000\000\000\000\000\000\000\000\000\000\000\000\253\252\252\252\252\252\024@TUUUU\325\'@\252\252\252\252\252\252\014@\000\000\000\000\000\000\340?\000\000\000\000\000\000\006@\253\252\252\252\252\252\362?\000\000\000\000\000@0@\000\000\000\000\000\000\360?\000\000\000\000\000\000\000\000\253\252\252\252\252\252\332?TUUUU\325%@\000\000\000\000\000\000\000\000\266m\333\266m\333\032@UUUUUU\023@\000\000\000\000\000\000$@\000\000\000\000\000\000\000\000\252\252\252\252\252\252\006@\252\252\252\252\252\252\002@\253\252\252\252\252\252\332?\000\000\000\000\000\220P@UUUUUU\375?\254\252\252\252\252\3526@\253\252\252\252\252\252\022@\000\000\000\000\000\000=@\252\252\252\252\252\252\002@\000\000\000\000\000\000\000\000\253\252\252\252\252\252\352?UUUUUU\365?\000\000\000\000\000\000\034@UUUUUU\371?\253\252\252\252\252\252\352?\000\000\000\000\000\000#@\000\000\000\000\000\000\000\000UUUUUU\371?\254\252\252\252\252\252\025@\000\000\000\000\000\000\000\000\000\000\000\000\000\000!@\000\000\000\000\000\000\010@\254\252\252\252\252\252\037@\000\000\000\000\000\000\000@\000\000\000\000\000\000\024@UUUUUU\305?\000\000\000\000\000\000\320?UUUUUU\007@UUUUU\325 @UUUUUU\003@TUUUUU\037@TUUUUuD@\000\000\000\000\000\000\"@\000\000\000\000\000\000\000\000\252\252\252\252\252\252\010@\000\000\000\000\000\000\370?\000\000\000\000\000\000\024@\000\000\000\000\000\000\000\000/\272\350\242\213.2@\254\252\252\252\252\252\032@\232\231\231\231\231\231\021@\254\252\252\252\252\252\037@\000\000\000\000\000\000\370?\253\252\252\252\252\252\352?\000\000\000\000\000\000\000\000\000\000\000\000\000\000\000\000\253\252\252\252\252\252\366?\000\000\000\000\000\000\374?\000\000\000\000\000\000\000\000UUUUUU\345?\000\000\000\000\000\000\000\000\000\000\000\000\000\000\000\000TUUUU\2254@\000\000\000\000\000\000\020@UUUUUU\371?\000\000\000\000\000\000\360?UUUUUU\005@\253\252\252\252\252\252\021@\000\000\000\000\000\000(@\253\252\252\252\252jA@UUUUUU\013@UUUUUU#@TUUUUU\031@\000\000\000\000\000\000\360?\000\000\000\000\000\000\360?\253\252\252\252\252\252\372?UUUUUU\024@UUUUUU\371?UUUUUU\325?\000\000\000\000\000\000\000\000UUUUUU\361?TUUUUU\031@TUUUU5E@\000\000\000\000\000\000\000\000\252\252\252\252\252\252\010@TUUUUU\031@\315\314\314\314\314La@\000\000\000\000\000\000\350?UUUUUU\265?\253\252\252\252\252\252\016@\253\252\252\252\252\252\022@\253\252\252\252\252\252\022@\000\000\000\000\000\000\020@\000\000\000\000\000\000\026@\000\000\000\000\000\200\'@\253\252\252\252\252\252\372?\222$I\222$I\n@\253\252\252\252\252\252\372?UUUUUU @\000\000\000\000\000\000\000\000\254\252\252\252\252\372_@\000\000\000\000\000\000\021@UUUUUU\007@\000\000\000\000\000\000\020@\253\252\252\252\252\252\362?UUUUUU\305?UUUUUU\022@UUUUUU\005@\213\235\330\211\235\330\'@\253\252\252\252\252\252\020@\253\252\252\252\252j0@\253\252\252\252\252\252\352?UUUUUU\361?\253\252\252\252\252\252\016@TUUUUU\037@\254\252\252\252\252\252\032@\000\000\000\000\000\000\022@UUUUUU\365?UUUUUU#@\000\000\000\000\000\000\000\000\253\252\252\252\252\252\352?\000\000\000\000\000\000\027@\253\252\252\252\252\252\023@\000\000\000\000\000\000\360\277\254\252\252\252\252\252\037@\030\206a\030\206a\000@\000\000\000\000\000\000\000\000\252\252\252\252\252\252\014@\000\000\000\000\000\000\000@\000\000\000\000\000\000*@\253\252\252\252\252\252\352?\000\000\000\000\000\000\000@UUUUUU!@\321E\027]t\321\031@\000\000\000\000\000\000\000\000\000\000\000\000\000\000)@UUUUUU\023@\000\000\000\000\000\000\000\000\000\000\000\000\000\000\021@UUUUUU\371?\000\000\000\000\000\000$@\000\000\000\000\000\000\000\000\000\000\000\000\000\000)@\000\000\000\000\000\000\006@\000\000\000\000\000\000\000\000UUUUUU\001@\000\000\000\000\000\000\000\000\000\000\000\000\000\000\360?\000\000\000\000\000\000\000\000\000\000\000\000\000\000\360?\000\000\000\000\000\000\000\000\000\000\000\000\000\240D@\000\000\000\000\000\000_@\000\000\000\000\000\000\034@\000\000\000\000\000\200.@UUUUUU\305?UUUUUU\"@\000\000\000\000\000\000\000\000\254\252\252\252\252\252)@UUUUUU\345?\000\000\000\000\000\270Q@\000\000\000\000\000\000\002@\000\000\000\000\000\000\374?%I\222$I\262P@TUUUU\2259@\253\252\252\252\252\252\362?TUUUUU\'@\000\000\000\000\000\000\372?UUUUUU\345?UUUUUU\345?\000\000\000\000\000\000*@UUUUUU\345?UUUUUU\305?\000\000\000\000\000\000\000\000UUUUUU\305?\000\000\000\000\000\300E@\000\000\000\000\000\000\000\000\253\252\252\252\252\252\362?\000\000\000\000\000\000\032@\254\252\252\252\252*+@\000\000\000\000\000\000\000\000\310q\034\307q\034\023@%I\222$I\222\020@\000\000\000\000\000\000\360?\000\000\000\000\000\000&@\000\000\000\000\000\000\006@\334\266m\333\266\3556@UUUUUU\371?\000\000\000\000\000\000\000\000\000\000\000\000\000\000\000@\000\000\000\000\000\000\004@\000\000\000\000\000\000$@\000\000\000\000\000\000\024@\000\000\000\000\000\000o@\000\000\000\000\000\000\360?UUUUUU\022@\000\000\000\000\000\000\037@UUUUUU\365?\253\252\252\252\252*E@UUUUUU\r@\000\000\000\000\000\000\000\000\000\000\000\000\000\000\350?\000\000\000\000\000\000\000\000\000\000\000\000\000\000\000@;\261\023;\261\023\003@\000\000\000\000\000\000\000@\000\000\000\000\000\000\000\000UUUUUU\345?\000\000\000\000\000\000\000\000UUUUUU\023@UUUUU\325$@UUUUUU @\253\252\252\252\252\252\376?UUUUUU\355?\252\252\252\252\252\252\014@UUUUUU\024@\000\000\000\000\000\000\000\000\000\000\000\000\000\000\000\000\253\252\252\252\252\312B@UUUUUU\355?\232\231\231\231\231\231\311?UUUUUU\375?\000\000\000\000\000\200&@\000\000\000\000\000\000\000\000UUUUUU\001@\000\000\000\000\000\000\360?\253\252\252\252\252\252\352?\000\000\000\000\000\000\013@\253\252\252\252\252\252$@\253\252\252\252\252\252\372?UUUUUU\355?\000\000\000\000\000\000\022@\222$I\222$I=@\000\000\000\000\000\000\360\277\253\252\252\252\252\252\352?\000\000\000\000\000\000\000\000UUUUUU\013@\000\000\000\000\000\0000@\253\252\252\252\252\252C@\000\000\000\000\000\000\030@\000\000\000\000\000\000\000\000\000\000\000\000\000\000\000\000333333;@UUUUU\325#@TUUUUU\036@\000\000\000\000\000\000\340?\000\000\000\000\000\000\360?UUUUUU\355?\253\252\252\252\252\252\022@\000\000\000\000\000\000\031@UUUUUU\325?\000\000\000\000\000\000\000\000\000\000\000\000\000\000\000@\000\000\000\000\000\000\027@]t\321E\027]3@\000\000\000\000\000\000\024@\000\000\000\000\000\2007@UUUUUU\025@\000\000\000\000\000\000\000\000\000\000\000\000\000\000\000\000\000\000\000\000\000\000\000\000UUUUUU\355?UUUUUU\345?\253\252\252\252\252\252\372?UUUUUU\r@\000\000\000\000\000\000\024@UUUUUU\365?\000\000\000\000\000\000\000\000ffffff\366?ffffff\366?\000\000\000\000\000\000)@\000\000\000\000\000\000\033@\000\000\000\000\000\000\320?UUUUUU\024@\253\252\252\252\252\252\021@\000\000\000\000\000\000\010@\000\000\000\000\000\000\000\000\000\000\000\000\000\300D@UUUUUUQ@UUUUUU\365?\000\000\000\000\000\000\000@\252\252\252\252\252\252\n@\254\252\252\252\252\252*@\254\252\252\252\252\252\030@\000\000\000\000\000\000,@\253\252\252\252\252\252\332?\000\000\000\000\000\000\000\000UUUUUU\003@\000\000\000\000\000\000\000\000\000\000\000\000\000\000\022@\000\000\000\000\000\000\000\000TUUUUU\034@TUUUUU\035@\315\314\314\314\314\314\014@UUUUUU\007@\000\000\000\000\000\000\000\000UUUUUU\005@\252\252\252\252\252\252\010@\000\000\000\000\000\000\000\000a\'vb\'v\362?\252\252\252\252\252\252\002@UUUUUU\013@\000\000\000\000\000\000\006@\253\252\252\252\252\252\366?\000\000\000\000\000\200!@\000\000\000\000\000\000\021@\000\000\000\000\000\000\000@\000\000\000\000\000\000\360?UUUUUU\325?TUUUUU\034@UUUUUU\007@UUUUUU\375?TUUUU\325.@UUUUUU\013@\000\000\000\000\000\000\350?\000\000\000\000\000\000\340?\000\000\000\000\000\2001@\000\000\000\000\000\000\000\000\000\000\000\000\000\000\360?UUUUUU\265?\000\000\000\000\000\000\000\000\254\252\252\252\252*6@\000\000\000\000\000\000\340?\253\252\252\252\252\252\376?\253\252\252\252\252*5@TUUUUU;@\000\000\000\000\000\340\\@UUUUUU\022@\000\000\000\000\000\000\000\000UUUUU\325$@\000\000\000\000\000\000\000\000\000\000\000\000\000\000 @TUUUU\325-@\000\000\000\000\000\000\000\000UUUUUU\361?UUUUU\325A@\000\000\000\000\000\000\000\000\000\000\000\000\000\000\000\000\254\252\252\252\252\252(@\000\000\000\000\000\000\000\000UUUUUU\003@\253\252\252\252\252\252\342?\000\000\000\000\000\000\370?\000\000\000\000\000\000,@\000\000\000\000\000\000\n@UUUUUU\325?\334\266m\333\266m\037@\000\000\000\000\000\000\021@UUUUUU\017@\253\252\252\252\252\252\366?\000\000\000\000\000\200(@UUUUUU\265?\254\252\252\252\252\3525@\000\000\000\000\000\000\340?\000\000\000\000\000\000\037@\000\000\000\000\000\000\000\000UUUUUU\355?TUUUU\325&@\000\000\000\000\000\000-@\000\000\000\000\000\000\010@\000\000\000\000\000\000\000\000\253\252\252\252\252\252\352?\000\000\000\000\000\000\000\000\232\231\231\231\231\231!@\000\000\000\000\000\000,@\253\252\252\252\252\252\376?UUUUUU\007@\000\000\000\000\000\000\006@TUUUU\325/@\254\252\252\252\252\252&@\000\000\000\000\000\000\000\000\000\000\000\000\000\000\370?UUUUUU\007@TUUUUU\036@\000\000\000\000\000\000.@\000\000\000\000\000\000\031@UUUUUU\013@\000\000\000\000\000\000\000@\000\000\000\000\000\000\000@\254\252\252\252\252\252\030@UUUUUU\007@\254\252\252\252\252\252%@\000\000\000\000\000\000\000\000\253\252\252\252\252\252\016@\000\000\000\000\000\000\006@\000\000\000\000\000\000\360\277\254\252\252\252\252\252\031@\000\000\000\000\000\000\000\000UUUUUU @\000\000\000\000\000\0003@\000\000\000\000\000\000\000\000UUUUUU\365?\000\000\000\000\000\000\000\000\000\000\000\000\000\000\360\277\252\252\252\252\252\252\002@TUUUU\225:@\000\000\000\000\000\000\000\000\000\000\000\000\000\000\000\000UUUUUU\365?\261\023;\261\023;;@\252\252\252\252\252\252\014@\000\000\000\000\000\000\016@\252\252\252\252\252\252\010@UUUUUU\371?\000\000\000\000\000\000\364?\000\000\000\000\000\000\340?\000\000\000\000\000\000#@\000\000\000\000\000\000\000\000UUUUUU\007@\000\000\000\000\000\000\002@\254\252\252\252\252\252\037@UUUUUU\r@\253\252\252\252\252\252\372?\000\000\000\000\000\000\000\000\000\000\000\000\000\000\000@\000\000\000\000\000\000\030@\000\000\000\000\000\3004@\232\231\231\231\231\231+@UUUUUM`@UUUUUU\013@\000\000\000\000\000\000\006@\253\252\252\252\252\252\376?\000\000\000\000\000\000\025@\000\000\000\000\000\0002@UUUUUU\001@\000\000\000\000\000\000\000\000UUUUUU\t@\000\000\000\000\000\000\000\000\000\000\000\000\000\000\000@UUUUUU\355?UUUUUU\375?\000\000\000\000\000\000\360?UUUUUU\361?\000\000\000\000\000\200\'@TUUUUU;@\254\252\252\252\252*\'@\000\000\000\000\000\000\014@\253\252\252\252\252\252\016@\000\000\000\000\000\000\000\000\252\252\252\252\252\252\000@\000\000\000\000\000\000\000\000UUUUUU\r@\253\252\252\252\252\252\024@\000\000\000\000\000\000\000\000UUUUUU\021@\000\000\000\000\000\000\350?UUUUU\3250@\253\252\252\252\252\252\376?\000\000\000\000\000\000-@UUUUUU\003@\000\000\000\000\000\000S@UUUUU\325!@\222$I\222$I\322?\000\000\000\000\000\000 @\000\000\000\000\000\3001@\000\000\000\000\000\2400@UUUUUU\022@\000\000\000\000\000\000\000\000\000\000\000\000\000\000\350?\232\231\231\231\231\231\351?\252\252\252\252\252\252\002@\252\252\252\252\252\252\000@3333335@\000\000\000\000\000\000\010@\000\000\000\000\000\000\360?\252\252\252\252\252\252\004@\253\252\252\252\252\252\366?\000\000\000\000\000\000\000\000\000\000\000\000\000\000&@\000\000\000\000\000\000\000\000\000\000\000\000\000\000\000\000\000\000\000\000\000\000\000\000UUUUUU\001@"
      }
    }
  }
}
node {
  name: "tensors/component_1"
  op: "Const"
  device: "/device:CPU:0"
  attr {
    key: "_output_shapes"
    value {
      list {
        shape {
          dim {
            size: 1192
          }
        }
      }
    }
  }
  attr {
    key: "dtype"
    value {
      type: DT_DOUBLE
    }
  }
  attr {
    key: "value"
    value {
      tensor {
        dtype: DT_DOUBLE
        tensor_shape {
          dim {
            size: 1192
          }
        }
        tensor_content: "UUUUU\315`@\254\252\252\252\252\252\'@\000\000\000\000\000\240v@\253\252\252\252\252\252!@\253\252\252\252\252*1@TUUUU\023\215@\337\335\335\335\335\335W@\253\252\252\252\252jA@\254\252\252\252\252\212G@\000\000\000\000\000\000\000\000\252\252\252\252\2522g@\254\252\252\252\252\252=@UUUUU\325 @UUUUU\235\221@n\333\266m\3336^@\000\000\000\000\0008n@TUUUUuC@\254\252\252\252\252\252+@\000\000\000\000\000\200?@\000\000\000\000\000\000>@\000\000\000\000\000\340j@\027]t\321E\367c@\252\252\252\252\252F\253@\253\252\252\252\252*`@\000\000\000\000\000\200:@\000\000\000\000\000\340E@\305N\354\304N \221@UUUUU\305S@\254\252\252\252\252\272X@TUUUUUO@UUUUU\255`@UUUUUm\201@\000\000\000\000\000`N@TUUUU\225O@\000\000\000\000\000\330u@\000\000\000\000\000\0006@UUUUU\005Q@TUUUU5E@\000\000\000\000\000\000/@\000\000\000\000\000\240d@TUUUU\345U@\000\000\000\000\000\240G@\000\000\000\000\000pS@\254\252\252\252\252\032X@\000\000\000\000\000 ]@\000\000\000\000\000\240W@\253\252\252\252\252JT@\000\000\000\000\000\000\000\000TUUUU\r\177@TUUUU\225m@\000\000\000\000\000pP@\000\000\000\000\000\240R@\000\000\000\000\000\000\000\000\000\000\000\000\000\000\000\000\000\000\000\000\000\200T@\254\252\252\252\252\252?@\000\000\000\000\000\200G@b\'vb\'\376\203@\252\252\252\252\252\262i@\253\252\252\252\252*\"@\000\000\000\000\000\0002@\000\000\000\000\000\200]@TUUUUUD@\000\000\000\000\000@Z@F\027]t\321EP@\253\252\252\252\252Jb@\252\252\252\252\252\322k@\253\252\252\252\252*@@TUUUU\215i@\254\252\252\252\252\212X@\254\252\252\252\252\312F@UUUUU%T@\000\000\000\000\000\000\000\000\000\000\000\000\000\360h@\000\000\000\000\000\000\000\000\000\000\000\000\000\000\000\000\000\000\000\000\000\000\360\277\000\000\000\000\000\340c@\000\000\000\000\000@C@\000\000\000\000\000\3003@\253\252\252\252\252\032S@\254\252\252\252\252\3525@\000\000\000\000\000\000\000\000\236\330\211\235\330\321\201@fffff&P@\254\252\252\252\252j=@\253\252\252\252\252\352@@\254\252\252\252\252\312X@\254\252\252\252\252jN@\000\000\000\000\000\240R@\000\000\000\000\000\000>@\254\252\252\252\252\226u@\252\252\252\252\252\"\245@TUUUUO\215@\253\252\252\252\252*d@\000\000\000\000\000\000\"@TUUUU%i@n\333\266m\333.\211@\253\252\252\252\252d\202@TUUUU\225I@\253\252\252\252\252jS@\000\000\000\000\000\3009@\334\266m\333\266m\033@\253\252\252\252\252\352\200@TUUUU\365C@UUUUU\325$@\000\000\000\000\000PU@\254\252\252\252\252*[@\254\252\252\252\252\212E@UUUUUeP@TUUUU\305V@UUUUUUA@\000\000\000\000\000\000K@\000\000\000\000\000Xc@TUUUU\225>@\035\307q\034\307\341v@TUUUU\0255@UUUUU\241p@\254\252\252\252\252\320\212@UUUUU\225c@\253\252\252\252\252\232`@\253\252\252\252\252ba@fffff\246T@TUUUU\325:@b\'vb\'\256\202@\000\000\000\000\000Z\202@\254\252\252\252\252j:@\254\252\252\252\252\352_@TUUUU\275e@\000\000\000\000\000@8@\253\252\252\252\252\252\021@\000\000\000\000\000\000\000\000\000\000\000\000\000\000\000\000\253\252\252\252\252Jp@\000\000\000\000\000pd@fffff>\210@\000\000\000\000\000\354\207@\000\000\000\000\000`B@\253\252\252\252\252\036s@\252\252\252\252\252\"j@\000\000\000\000\000`\\@TUUUUU]@\215\3438\216\34385@\000\000\000\000\000\000\000\000TUUUUqv@TUUUU\325]@UUUUU}s@\254\252\252\252\252\n]@\000\000\000\000\000\340B@\000\000\000\000\000 I@TUUUU5C@\000\000\000\000\000\000\000\000\254\252\252\252\252\272\\@\000\000\000\000\000\200Q@\000\000\000\000\000\000\000\000\000\000\000\000\000\000\000\000UUUUU\345P@UUUUU\305t@\253\252\252\252\252\2520@\000\000\000\000\000@6@\000\000\000\000\000\000%@\000\000\000\000\000`E@\315\314\314\314\314\314G@TUUUU\007\211@\000\000\000\000\000\360U@\000\000\000\000\000\250d@TUUUUuL@\000\000\000\000\000\000\000\000\254\252\252\252\252\352>@\000\000\000\000\000\000\016@\000\000\000\000\000\000\000\000\000\000\000\000\000\000\000\000\252\252\252\252\252Jj@\000\000\000\000\000`F@\000\000\000\000\000`A@\000\000\000\000\000\310b@\000\000\000\000\000\3007@\253\252\252\252\252\nb@\000\000\000\000\000`s@\000\000\000\000\000\000\000\000UUUUU\325a@\000\000\000\000\000\300A@\000\000\000\000\000\300S@\252\252\252\252\252\242k@\253\252\252\252\252T\205@TUUUU\271\177@\000\000\000\000\000\000:@\000\000\000\000\000xd@\000\000\000\000\000\000\000\000TUUUU\325N@\000\000\000\000\000\000\000\000\253\252\252\252\252\232R@\000\000\000\000\000\000\000\000\000\000\000\000\000\000\000\000\253\252\252\252\252\372`@\253\252\252\252\252\nE@\000\000\000\000\000\000\000\000UUUUUip@TUUUU\325G@UUUUU\325a@\000\000\000\000\000@P@\254\252\252\252\252\nI@\307q\034\307q\\^@\000\000\000\000\000\2003@\000\000\000\000\000Pd@TUUUU\335f@\254\252\252\252\252\212]@TUUUUUO@\000\000\000\000\000\000\000\000\000\000\000\000\000@x@n\333\266m\333\266F@\000\000\000\000\000\300T@\253\252\252\252\252Ra@\253\252\252\252\252\252`@\000\000\000\000\000\\b@\000\000\000\000\000\000\000\000\000\000\000\000\000\340j@\000\000\000\000\000\0002@\000\000\000\000\000\000\360\277\000\000\000\000\000\0009@\252\252\252\252\252Jg@\017\017\017\017\017\245\247@\253\252\252\252\252\270\200@\000\000\000\000\000`@@\000\000\000\000\000`g@\000\000\000\000\000pe@TUUUU\325.@\000\000\000\000\000\000\000\000UUUUU\225Q@\000\000\000\000\000\300>@\253\252\252\252\252\312B@UUUUUUU@\315\314\314\314\314\354Q@UUUUUU#@\000\000\000\000\000\2001@\252\252\252\252\252\332j@\000\000\000\000\000\240Q@33333sW@\000\000\000\000\000\000\000\000\000\000\000\000\000@[@TUUUU\3253@\254\252\252\252\252\252L@\000\000\000\000\000pR@UUUUUUd@TUUUU\225B@\253\252\252\252\252\262d@\000\000\000\000\000@g@\000\000\000\000\000\2001@\254\252\252\252\252*9@\000\000\000\000\000hm@\000\000\000\000\000\214v@\254\252\252\252\252\312J@\333\266m\333\266m0@\252\252\252\252\252\272j@UUUUU\025@@n\333\266m\333\2665@\000\000\000\000\000\0006@\000\000\000\000\000`G@\254\252\252\252\252\nO@TUUUU\305_@\253\252\252\252\252\252\023@UUUUU\205P@\000\000\000\000\000\000\000\000\000\000\000\000\000\324v@\000\000\000\000\000\0003@\000\000\000\000\000\000\000\000\000\000\000\000\000\350`@\254\252\252\252\252\312e@TUUUU\325K@TUUUU\265\\@\253\252\252\252\252\312D@\000\000\000\000\000\000\330?s\034\307q\034\3073@\000\000\000\000\000\330\177@UUUUU1r@\253\252\252\252\252\376r@TUUUU\335l@\000\000\000\000\000\3008@\000\000\000\000\000\000\000\000&vb\'v\242\\@\254\252\252\252\252*K@\254\252\252\252\252\272u@\000\000\000\000\000\200M@\000\000\000\000\000\000\232@\254\252\252\252\252\312F@\000\000\000\000\000\340E@TUUUU\265^@\000\000\000\000\000\000\000\000\000\000\000\000\000\000\000\000\000\000\000\000\000\320Q@\000\000\000\000\000\200I@n\333\266m\333\266b@\000\000\000\000\000(a@\253\252\252\252\252\272b@TUUUU\0254@\000\000\000\000\000\010c@\253\252\252\252\252\302r@\000\000\000\000\000\320[@\253\252\252\252\252jd@\000\000\000\000\000\000\000\000TUUUUU/@\254\252\252\252\252\312K@&vb\'v\002w@TUUUUU)@TUUUU\355h@\000\000\000\000\000\000\010@UUUUUU\021@\000\000\000\000\000\0009@\254\252\252\252\252(\210@\000\000\000\000\000\000\000\000TUUUU\265C@\253\252\252\252\252\232b@\254\252\252\252\252*O@\000\000\000\000\000\000\000\000\253\252\252\252\252j2@TUUUU5l@\000\000\000\000\000\000\000\000\000\000\000\000\000\270k@\333\266m\333\266\355@@\254\252\252\252\252\2525@UUUUUeP@UUUUUuc@\253\252\252\252\252*S@fffff\346O@\000\000\000\000\000\000\000\000\000\000\000\000\000\200`@UUUUU\302\221@TUUUU\325-@\253\252\252\252\252\212B@\000\000\000\000\000\000\000\000TUUUU%Z@UUUUU\245`@\000\000\000\000\000 G@\000\000\000\000\000\000@@\253\252\252\252\252\272S@\000\000\000\000\000\000\000\000333333_@\000\000\000\000\000Tr@\000\000\000\000\000\200<@\253\252\252\252\252\n@@\000\000\000\000\000\200A@\000\000\000\000\000\000\360\277\027]t\321EWh@\254\252\252\252\252\252\032@\000\000\000\000\000\200M@\000\000\000\000\000\\\226@UUUUU\245R@\000\000\000\000\000\000\360\277\253\252\252\252\252\302d@\254\252\252\252\252\272X@\000\000\000\000\000\000\000\000\330\211\235\330\211]b@\000\000\000\000\000\000\000\000\000\000\000\000\000\354s@\272\350\242\213.\2723@TUUUUeW@UUUUUeQ@\000\000\000\000\000\000\000\000\000\000\000\000\000(i@\000\000\000\000\000\000\000\000\254\252\252\252\252\3527@\254\252\252\252\252\2528@\253\252\252\252\252\231\223@TUUUU5F@\000\000\000\000\000\300H@UUUUU\305S@\253\252\252\252\252Zr@\000\000\000\000\000 A@\253\252\252\252\252\2520@\254\252\252\252\252\252\034@\252\252\252\252\2522i@\000\000\000\000\000\320^@\000\000\000\000\000@I@\254\252\252\252\252jW@\000\000\000\000\000\000\000\000\253\252\252\252\252\302`@l(\257\241\274&s@\000\000\000\000\000\240G@TUUUUe[@\254\252\252\252\252\332u@\000\000\000\000\000@L@\253\252\252\252\252\nB@\000\000\000\000\000`\\@\000\000\000\000\000\234w@\000\000\000\000\000hn@!\"\"\"\"\342h@fffff\346_@\254\252\252\252\252\312V@\000\000\000\000\000\0005@\000\000\000\000\000 N@UUUUU-`@\000\000\000\000\000\320S@\000\000\000\000\000\200G@TUUUUuC@\000\000\000\000\000\200L@\253\252\252\252\352\037\301@\254\252\252\252\252\312F@UUUUUu`@TUUUUe^@\000\000\000\000\000\200Q@\333\266m\333\266\325q@\000\000\000\000\000\240c@\000\000\000\000\000\000@@\000\000\000\000\000@5@\000\000\000\000\000 ]@O\354\304N\354\274\214@UUUUUU$@\232\231\231\231\231\tc@\000\000\000\000\000\340E@UUUUU\205T@\000\000\000\000\000`@@\000\000\000\000\000\000\000\000TUUUUUM@\000\000\000\000\000\240A@\253\252\252\252\252\2521@TUUUUuL@UUUUU\025d@\000\000\000\000\000\000 @TUUUU\245Z@\000\000\000\000\000\240R@\000\000\000\000\000\360]@\321E\027]tQO@TUUUUl\233@\000\000\000\000\000\0008@\000\000\000\000\000\3007@<\261\023;\261\223\207@\000\000\000\000\000\200%@\253\252\252\252\252*P@\253\252\252\252\252\332a@\253\252\252\252\252*0@\000\000\000\000\000\3009@\232\231\231\231\231Y_@\254\252\252\252\252\252E@\254\252\252\252\252\212K@\000\000\000\000\000\260W@\000\000\000\000\000\000\000\000UUUUUe`@\000\000\000\000\000\000\000\000\000\000\000\000\000\000$@TUUUU\325;@\000\000\000\000\000`O@UUUUU\325a@\253\252\252\252\252zd@\253\252\252\252\252\222a@\000\000\000\000\000\320X@TUUUU\2252@UUUUU\325\"@TUUUU\225;@\253\252\252\252\252JA@UUUUU\225T@\254\252\252\252\252\252%@\000\000\000\000\000\000\000\000\253\252\252\252\252\032c@\000\000\000\000\000\000\037@\253\252\252\252\252\322c@\000\000\000\000\000\330f@\000\000\000\000\000T\221@UUUUU\205R@\253\252\252\252\252\002a@\000\000\000\000\000@5@UUUUUEe@\000\000\000\000\000\000P@TUUUUU4@\000\000\000\000\000@V@\000\000\000\000\000\330g@J\222$I\222$M@TUUUUUN@\000\000\000\000\000(r@\000\000\000\000\000\200<@UUUUU\265c@\000\000\000\000\000\000;@\254\252\252\252\252\332Z@UUUUU\235p@\253\252\252\252\252\302t@\254\252\252\252\252Z\216@TUUUU\265F@\000\000\000\000\000\000,@\000\000\000\000\000\000J@\000\000\000\000\0000i@TUUUU\321~@\254\252\252\252\252jF@\232\231\231\231\231\231\361?\254\252\252\252\252\032f@\000\000\000\000\000F\234@\000\000\000\000\000\000&@\253\252\252\252\252\302r@\253\252\252\252\252*#@\000\000\000\000\000\000\000\000\000\000\000\000\000\000\000\000\254\252\252\252\252\006w@\000\000\000\000\000X`@\254\252\252\252\252*>@\000\000\000\000\000@T@\000\000\000\000\000\000\030@\000\000\000\000\000\000C@\252\252\252\252\252zh@\000\000\000\000\000\020Q@TUUUU\325I@\254\252\252\252\252\252:@TUUUU\225]@\000\000\000\000\000@9@TUUUU\326\226@\253\252\252\252\252jC@\000\000\000\000\000\000-@\016\3455\224\327\320_@\000\000\000\000\000\300R@\232\231\231\231\231\231H@UUUUU]e@TUUUUmi@TUUUU\275l@\253\252\252\252\252B`@\000\000\000\000\000R\201@\000\000\000\000\000Xp@\253\252\252\252\252j4@TUUUUC\215@UUUUU\205T@\000\000\000\000\000\000\000\000UUUUUU1@TUUUU\343\206@\254\252\252\252\252\252\032@fffff\346N@TUUUU\025H@\000\000\000\000\000\214t@UUUUU\347\200@\000\000\000\000\000`I@\000\000\000\000\000\000\360\277\000\000\000\000\000\300A@\253\252\252\252\252\nA@\254\252\252\252\252\212}@\000\000\000\000\000\000\000\000UUUUU\325@@\000\000\000\000\000\000\000\000\000\000\000\000\000\000\360\277\000\000\000\000\000\000\030@\000\000\000\000\000\000\000\000TUUUU\325=@\253\252\252\252\252\2522@TUUUU\215o@\000\000\000\000\000\000\000\000\000\000\000\000\000@V@\000\000\000\000\000@Y@\000\000\000\000\000\000\"@\253\252\252\252\252\nD@\253\252\252\252\252\na@ffffff,@\000\000\000\000\000\000E@\253\252\252\252\252\312r@UUUUU#\201@UUUUU\335c@333333\037@UUUUU\365S@\000\000\000\000\000\000(@\232\231\231\231\231\2310@\000\000\000\000\000\000-@\253\252\252\252\252\nE@\000\000\000\000\000\000I@\000\000\000\000\000\360S@\000\000\000\000\000pa@\000\000\000\000\000\000\014@\000\000\000\000\000\264\211@\000\000\000\000\000\200M@\254\252\252\252\252\005\234@\254\252\252\252\252\212X@\254\252\252\252\252\032y@\000\000\000\000\000\000\000\000\000\000\000\000\000\200X@\252\252\252\252\252\252\014@\000\000\000\000\000pP@TUUUU\345V@\253\252\252\252\252\312T@\254\252\252\252\252\232Y@\000\000\000\000\000\0004@s\034\307q\034GE@\000\000\000\000\000\000\000\000TUUUUuW@UUUUUU0@\222$I\222$\311L@\253\252\252\252\252Je@TUUUU\325/@\000\000\000\000\000\340@@\000\000\000\000\000\3005@\000\000\000\000\000\000\360\277\000\000\000\000\000hq@\000\000\000\000\000\000-@\000\000\000\000\000\200*@\000\000\000\000\000\000\000\000\253\252\252\252\252\032a@\000\000\000\000\000\310f@\000\000\000\000\000\000\000\000UUUUU\211\201@UUUUU\265A@UUUUU\325P@UUUUUER@\254\252\252\252\252\212u@TUUUUU\035@\334\266m\333\266m+@\000\000\000\000\000\260\252@\000\000\000\000\000\200F@TUUUU\3254@TUUUU\305]@\254\252\252\252\252\252=@\000\000\000\000\000\340P@TUUUUEh@\000\000\000\000\000\0007@TUUUUUo@TUUUU5V@\000\000\000\000\000\000#@\253\252\252\252\252jD@TUUUU\365O@TUUUU%\\@\000\000\000\000\000\000\000\000\254\252\252\252\252ZY@\000\000\000\000\000\000\000\000\000\000\000\000\000\0002@TUUUUUV@\254\252\252\252\252\332X@TUUUU]g@\000\000\000\000\000\000\000\000TUUUU\265m@\254\252\252\252\252jJ@q\034\307q\034\027\206@\000\000\000\000\000\000\000\000\000\000\000\000\000\320Z@\000\000\000\000\000@6@\000\000\000\000\000\360]@TUUUU\305W@\331\211\235\330\211\335\203@\000\000\000\000\000\000\000\000TUUUU\325Z@TUUUU\225D@\000\000\000\000\000\000,@TUUUU\225e@\000\000\000\000\000\310c@\000\000\000\000\000\000\000\000\000\000\000\000\000\000,@\000\000\000\000\000\000\000\000\000\000\000\000\000r\201@\000\000\000\000\000\000\000\000TUUUU\365V@\000\000\000\000\000\300R@\000\000\000\000\000\340F@\000\000\000\000\000\000\000\000\000\000\000\000\000\000\000\000\253\252\252\252\252\007\220@\000\000\000\000\000\000\000\000TUUUUUZ@\000\000\000\000\000\000P@TUUUU\225[@UUUUUuA@\000\000\000\000\000\3007@\000\000\000\000\000@A@UUUUUeP@UUUUU\315d@\254\252\252\252\252\252<@TUUUU\025C@\000\000\000\000\000\000 @\000\000\000\000\000(d@TUUUUUN@\254\252\252\252\252*:@\253\252\252\252\252\352S@\000\000\000\000\000\300G@\000\000\000\000\000\000G@TUUUU\225C@\000\000\000\000\000\362\253@\253\252\252\252\252\302b@\253\252\252\252\252\252c@m\333\266m\333V\177@\000\000\000\000\000\370s@\000\000\000\000\000\000\000\000\000\000\000\000\000\200]@\000\000\000\000\000@_@TUUUUEV@TUUUU\225?@\000\000\000\000\000\340B@\000\000\000\000\000 F@TUUUU\3253@\000\000\000\000\000\000\000\000UUUUU\225A@TUUUUU(@TUUUU\365O@\000\000\000\000\000@F@33333\2632@\000\000\000\000\000\000\000\000\000\000\000\000\000\010f@TUUUU\0253@\000\000\000\000\000@@@\222$I\222$\313\242@\000\000\000\000\000`J@\000\000\000\000\000\000\000\000\253\252\252\252\252\312B@\000\000\000\000\000\340J@UUUUU5`@\254\252\252\252\252z[@\000\000\000\000\000\000\000\000\000\000\000\000\000\000\000\000TUUUU\365M@\253\252\252\252\252j5@\000\000\000\000\000\000A@\000\000\000\000\000\000\000\000vb\'vb\247P@TUUUUUJ@\000\000\000\000\000\254y@\000\000\000\000\000xs@TUUUU\360\252@\000\000\000\000\000\000\370?\315\314\314\314\314LV@\000\000\000\000\000\000\024@TUUUU\005n@\000\000\000\000\000\200;@UUUUU\350\222@\000\000\000\000\000\000=@\000\000\000\000\000\000\000\000\000\000\000\000\000\000\000@\254\252\252\252\252j]@UUUUU%d@UUUUUeQ@UUUUUU\020@\000\000\000\000\000@6@TUUUU\225>@\254\252\252\252\252\370\216@\253\252\252\252\252\232T@\000\000\000\000\000\000\000\000\000\000\000\000\000\3004@UUUUU}c@\000\000\000\000\000\000\000\000I\222$I\222\004s@TUUUU\205Z@TUUUU%V@\000\000\000\000\000\000\000\000\000\000\000\000\000 D@\000\000\000\000\000\200>@\000\000\000\000\000\0008@\000\000\000\000\000B\203@TUUUUU2@\000\000\000\000\000\330c@\000\000\000\000\000\000C@\222$I\222$\351X@\253\252\252\252\252\212B@\000\000\000\000\000\000\000\000\000\000\000\000\000\000 @\000\000\000\000\000Hh@\254\252\252\252\252\212^@\000\000\000\000\000\200:@TUUUUuE@UUUUU\255`@\000\000\000\000\000\000-@\000\000\000\000\000\300G@\253\252\252\252\252\330\200@\000\000\000\000\000\000\000\000TUUUU\325E@\000\000\000\000\000@H@TUUUU\305W@\000\000\000\000\000\000C@UUUUU\307\204@\000\000\000\000\000\200-@\000\000\000\000\000\000\030@\000\000\000\000\000\214u@\254\252\252\252\252\032[@\000\000\000\000\000\020[@\000\000\000\000\000@r@TUUUU\221\225@\000\000\000\000\000pR@\000\000\000\000\000\000\000\000\254\252\252\252\252JJ@\000\000\000\000\000\300D@\000\000\000\000\000PS@\000\000\000\000\000\000\360?\027]t\321E\327i@\000\000\000\000\000\034{@fffff\346H@TUUUU\345Z@\254\252\252\252\252\2526@\000\000\000\000\000\240V@\253\252\252\252\252*\"@\000\000\000\000\000\000\000\000\254\252\252\252\252\312H@UUUUU\225A@\000\000\000\000\000\000\000\000\253\252\252\252\252j5@\000\000\000\000\000\000\000\000\000\000\000\000\000\000\000\000TUUUU\215v@\253\252\252\252\252\372P@\000\000\000\000\000@D@\254\252\252\252\252\2528@\000\000\000\000\000\2003@TUUUU\345V@\000\000\000\000\000\000*@\000\000\000\000\000\n\200@TUUUUUG@UUUUU\365S@TUUUU\255m@\000\000\000\000\000\0004@\000\000\000\000\000\000\024@\253\252\252\252\252\212B@\000\000\000\000\000\200L@\000\000\000\000\000\240Q@\000\000\000\000\000\200?@\000\000\000\000\000\000\000\000\253\252\252\252\252ZT@\000\000\000\000\000\340X@UUUUUqq@\000\000\000\000\000\000\000\000\000\000\000\000\000`J@\253\252\252\252\252\026t@33333\"\273@TUUUU\265G@\253\252\252\252\252\252A@\000\000\000\000\000@?@\000\000\000\000\000\360T@\252\252\252\252\252\372n@\000\000\000\000\000\220Z@\000\000\000\000\000\0009@\000\000\000\000\000xr@\253\252\252\252\252\252B@J\222$I\222\244i@\254\252\252\252\252JM@\253\252\252\252\252\236p@\000\000\000\000\000\000\000\000\254\252\252\252\252\256\207@\254\252\252\252\252*)@\000\000\000\000\000\000l@s\034\307q\034GJ@\254\252\252\252\252**@TUUUUUE@\000\000\000\000\000\2005@TUUUUuL@(vb\'vbG@\253\252\252\252\252\252S@\000\000\000\000\000\260\\@UUUUU\365A@\253\252\252\252\252JQ@\000\000\000\000\000\300>@\000\000\000\000\000\000O@TUUUU\225N@\000\000\000\000\000\320[@UUUUUU\"@\000\000\000\000\000\260\205@\000\000\000\000\000\000\000\000\000\000\000\000\000\2006@\254\252\252\252\252jF@\000\000\000\000\000\200d@\000\000\000\000\000\000\360\277\000\000\000\000\000\340[@\350y\236\347y\2362@\000\000\000\000\000\000\000\000\254\252\252\252\252:^@\000\000\000\000\000@[@\252\252\252\252\252\342l@UUUUU\ra@\254\252\252\252\252\252;@\253\252\252\252\252\252@@]t\321E\027\335}@\000\000\000\000\000\000\000\000\000\000\000\000\000\350x@TUUUU\225m@\000\000\000\000\000\000\000\000\000\000\000\000\000\230f@TUUUU\365K@TUUUU\325O@\000\000\000\000\000\000\000\000\000\000\000\000\000`W@TUUUU\225M@\000\000\000\000\000\000\000\000\000\000\000\000\000`P@\000\000\000\000\000\000\000\000\000\000\000\000\000\200@@\000\000\000\000\000\000\000\000\000\000\000\000\000\000\"@\000\000\000\000\000\000\000\000\252\252\252\252\252bl@TUUU\025\355\267@\000\000\000\000\000\200D@\254\252\252\252\252:^@\000\000\000\000\000\000\"@TUUUU\t|@\000\000\000\000\000\000\000\000UUUUU}`@\000\000\000\000\000@9@\000\000\000\000@q\255@TUUUU\005V@\254\252\252\252\252\312K@\334\266m\333\266}\205@\252\252\252\252*\305\242@\000\000\000\000\000\2008@\253\252\252\252\252*T@\000\000\000\000\000 H@\000\000\000\000\000\200T@\254\252\252\252\252\252=@UUUUU]b@\000\000\000\000\000`G@\254\252\252\252\252\252/@\000\000\000\000\000\000\000\000TUUUUUL@\000\000\000\000\000\240\210@\000\000\000\000\000\000\000\000TUUUU5K@\000\000\000\000\000 d@\254\252\252\252\252\212\177@\000\000\000\000\000\000\020@\034\307q\034\3071V@%I\222$IRT@\253\252\252\252\252JA@TUUUU5Y@\000\000\000\000\000\300F@I\222$I\222<\232@TUUUU\025W@\000\000\000\000\000\000\000\000\315\314\314\314\314\314?@TUUUU\265E@\252\252\252\252\252\272n@\000\000\000\000\000\000 @\000\000\000\000\000H\212@\000\000\000\000\000\2000@\000\000\000\000\000\030`@TUUUU\225I@\000\000\000\000\000\3002@\000\000\000\000\000\232\202@\000\000\000\000\000 E@\000\000\000\000\000\000\000\000TUUUU\2254@\000\000\000\000\000\000\000\000\000\000\000\000\000 F@\212\235\330\211\235\330L@TUUUU\325^@\000\000\000\000\000\000\000\000TUUUUU4@\000\000\000\000\000\000\000\000\254\252\252\252\252\3529@UUUUU\035e@TUUUU\365Y@\000\000\000\000\000\300L@UUUUU\365@@\000\000\000\000\000\000O@\000\000\000\000\000@_@\000\000\000\000\000\000\000\000\000\000\000\000\000\000\000\000\253\252\252\252\252\033\225@UUUUU\365A@fffff\346^@UUUUU\325A@\253\252\252\252\252~\203@\000\000\000\000\000\000\000\000\254\252\252\252\252\352I@\000\000\000\000\000\3006@TUUUU\265D@\000\000\000\000\000\200F@\000\000\000\000\000\340R@\254\252\252\252\252\252]@TUUUU5B@\000\000\000\000\000\200O@\222$I\222$ik@\000\000\000\000\000\000\360\277UUUUU\365P@\000\000\000\000\000\000\000\000\253\252\252\252\252\016u@\253\252\252\252\252\212`@\000\000\000\000\000 u@\000\000\000\000\000 `@\000\000\000\000\000\000\000\000\000\000\000\000\000\000\000\000fffff&L@\253\252\252\252\252\nQ@\000\000\000\000\0000`@\000\000\000\000\000\000\034@\000\000\000\000\000\000G@\000\000\000\000\000\200*@TUUUU\325<@UUUUU\325b@\000\000\000\000\000\3008@\000\000\000\000\000\000\000\000\000\000\000\000\000\000;@\000\000\000\000\000\230d@\215.\272\350\242\313\\@\000\000\000\000\000\340L@\252\252\252\252\252\262f@UUUUU\305P@\000\000\000\000\000\000\000\000\000\000\000\000\000\000+@\000\000\000\000\000\000#@\254\252\252\252\252*9@\254\252\252\252\252*6@TUUUU\265L@UUUUU\355d@\000\000\000\000\000\000,@\253\252\252\252\252\232p@\000\000\000\000\000\000\000\000\000\000\000\000\000\240n@ffffff1@\000\000\000\000\000\300D@\000\000\000\000\000@S@\254\252\252\252\252*)@\253\252\252\252\252\252p@\252\252\252\252\252\252g@\253\252\252\252\252\nB@\000\000\000\000\000\000\000\000\000\000\000\000\000\010o@\253\252\252\252\252+\223@\254\252\252\252\252*.@\000\000\000\000\000\300V@\000\000\000\000\000@Z@UUUUU\r`@\000\000\000\000\0008k@\000\000\000\000\000\000G@\000\000\000\000\000\272\206@\000\000\000\000\000\000\000\000UUUUU\035T@\000\000\000\000\000\000\000\000\254\252\252\252\252Z]@\000\000\000\000\000\000\000\000\000\000\000\000\000xe@\254\252\252\252\252\352Z@\232\231\231\231\231\031@@\000\000\000\000\000 L@\000\000\000\000\000\000\000\000\253\252\252\252\2526p@\000\000\000\000\000`M@\000\000\000\000\000\000\000\000\330\211\235\330\211\235,@\254\252\252\252\252\252E@\000\000\000\000\000 k@TUUUU\325L@TUUUU\325G@\253\252\252\252\252\252S@\000\000\000\000\000\300\\@\000\000\000\000\000\200(@\333\266m\333\266m#@\254\252\252\252\252\252\030@TUUUU\245^@\254\252\252\252\252jK@\254\252\252\252\252*;@\254\252\252\252\252\372X@\000\000\000\000\000\3007@\254\252\252\252\252\252,@\254\252\252\252\252\252\036@\254\252\252\252\252JX@\000\000\000\000\000\000\000\000TUUUUU<@\254\252\252\252\252:[@\000\000\000\000\000\000\022@TUUUUQ\216@TUUUUeZ@\254\252\252\252\252jH@TUUUU\365_@\000\000\000\000\000 ]@TUUUUe\213@\000\000\000\000\000\260Q@\000\000\000\000\000\000\000\000\000\000\000\000\000\320X@\000\000\000\000\000\000\000\000\000\000\000\000\000\0003@\254\252\252\252\252\346u@\000\000\000\000\000\0006@\000\000\000\000\000\200a@\000\000\000\000\000\340e@\254\252\252\252\252*\'@\000\000\000\000\000\000\000\000\253\252\252\252\252Bc@\253\252\252\252\252R`@UUUUUEQ@\000\000\000\000\000\3007@\000\000\000\000\000`N@\000\000\000\000\000\000J@\000\000\000\000\000\340G@\034\307q\034\307q.@\333\266m\333\266\255S@\254\252\252\252\252\352N@\252\252\252\252\252\362m@\000\000\000\000\000 Q@\000\000\000\000\000\210m@\252\252\252\252\252\252\004@\000\000\000\000\0000c@\000\000\000\000\000\200%@\253\252\252\252\2522r@\000\000\000\000\000\000\000\000\000\000\000\000\000\320p@\000\000\000\000\000PQ@\252\252\252\252\252\352l@\000\000\000\000\000\000@@\000\000\000\000\000\000\000\000TUUUU\205V@\000\000\000\000\000\000\000\000\335\335\335\335\335}l@\000\000\000\000\000 \177@\000\000\000\000\000\240I@\000\000\000\000\000\0004@TUUUU\365W@UUUUU\315d@\254\252\252\252\252\232W@\000\000\000\000\000\000\000\000\000\000\000\000\000\200;@TUUUU\365m@\254\252\252\252\252Z\206@\252\252\252\252\252\212f@\254\252\252\252\252\232W@TUUUU\325=@\253\252\252\252\252\212d@\000\000\000\000\000\000\037@TUUUUeY@TUUUU5Y@\253\252\252\252\252\362`@\000\000\000\000\000\000\000\000\000\000\000\000\000\300B@\254\252\252\252\252jK@\000\000\000\000\000\000\360\277\254\252\252\252\252\252<@\000\000\000\000\000\000\000\000TUUUU%]@UUUUU\355\201@\253\252\252\252\252\252#@\252\252\252\252\252\212g@\000\000\000\000\000\000\000\000\000\000\000\000\000\000\360\277\000\000\000\000\000`@@TUUUU\ro@\000\000\000\000\000\000\000\000\000\000\000\000\000\000\000\000TUUUUU:@\306N\354\304N\354c@\253\252\252\252\252JP@\000\000\000\000\0000S@\253\252\252\252\252\352S@TUUUU\325G@\000\000\000\000\000`@@\000\000\000\000\000\000/@\000\000\000\000\000\334r@\000\000\000\000\000\000\000\000TUUUU\325D@\254\252\252\252\252\2526@UUUUU]`@\000\000\000\000\000\340D@\253\252\252\252\252ZT@\000\000\000\000\000\000\000\000\254\252\252\252\252\252<@\000\000\000\000\000\000B@\000\000\000\000\000\300r@\211\210\210\210\210\310b@\000\000\000\000\000\304\177@TUUUU5K@\253\252\252\252\252\nR@\254\252\252\252\252\312K@\254\252\252\252\252\232^@\252\252\252\252\252\362f@\000\000\000\000\000 F@\000\000\000\000\000\000\000\000\254\252\252\252\252\272[@333333\013@TUUUU\025D@\000\000\000\000\000\000D@UUUUUU$@\000\000\000\000\000\0003@\254\252\252\252\252*>@\000\000\000\000\000\320Q@\000\000\000\000\000\010k@UUUUUMc@UUUUU\305Q@\000\000\000\000\000\320T@\000\000\000\000\000\000\000\000\254\252\252\252\252JF@\000\000\000\000\000\000\000\000UUUUU\341s@\000\000\000\000\000`G@UUUUUU\325?\253\252\252\252\252*U@TUUUU\025<@\000\000\000\000\000\020`@\000\000\000\000\000\300J@\000\000\000\000\0000W@\000\000\000\000\000\240O@\254\252\252\252\252\332{@\254\252\252\252\252\252W@n\333\266m\333\266\025@\000\000\000\000\000\020R@\252\252\252\252\252ji@\000\000\000\000\0007q@UUUUU\215c@\000\000\000\000\000\000\000\000TUUUU\025<@333333\037@\253\252\252\252\252t\200@\253\252\252\252\252\252@@\232\231\231\231\231\271a@\253\252\252\252\252\252C@\000\000\000\000\000\200A@\000\000\000\000\000`T@\253\252\252\252\252\nC@\000\000\000\000\000\000\000\000\252\252\252\252\252Bh@\000\000\000\000\000\000\'@UUUUUU\020@\000\000\000\000\000\000\000\000\254\252\252\252\252\3526@"
      }
    }
  }
}
node {
  name: "tensors/component_2"
  op: "Const"
  device: "/device:CPU:0"
  attr {
    key: "_output_shapes"
    value {
      list {
        shape {
          dim {
            size: 1192
          }
        }
      }
    }
  }
  attr {
    key: "dtype"
    value {
      type: DT_INT64
    }
  }
  attr {
    key: "value"
    value {
      tensor {
        dtype: DT_INT64
        tensor_shape {
          dim {
            size: 1192
          }
        }
        tensor_content: "P\003\000\000\000\000\000\000\272\002\000\000\000\000\000\000\311\026\000\000\000\000\000\0003\000\000\000\000\000\000\000\224\000\000\000\000\000\000\000L2\000\000\000\000\000\000w\002\000\000\000\000\000\000\275\023\000\000\000\000\000\000\026\024\000\000\000\000\000\000\t\000\000\000\000\000\000\000w\003\000\000\000\000\000\000\355\000\000\000\000\000\000\000n\000\000\000\000\000\000\000.\036\000\000\000\000\000\000\033\002\000\000\000\000\000\000l\026\000\000\000\000\000\000\241\000\000\000\000\000\000\000\352\001\000\000\000\000\000\000\210\000\000\000\000\000\000\000\347\000\000\000\000\000\000\000\'\014\000\000\000\000\000\000\311\006\000\000\000\000\000\000\371\027\000\000\000\000\000\000Y\002\000\000\000\000\000\000\207\000\000\000\000\000\000\000\221\004\000\000\000\000\000\000\232:\000\000\000\000\000\000\257\002\000\000\000\000\000\000 \002\000\000\000\000\000\000\354\000\000\000\000\000\000\000@\002\000\000\000\000\000\000\320!\000\000\000\000\000\000\r\003\000\000\000\000\000\000\313\002\000\000\000\000\000\000\353\005\000\000\000\000\000\000G\000\000\000\000\000\000\000\374\001\000\000\000\000\000\000\370\000\000\000\000\000\000\000\336\003\000\000\000\000\000\000I\003\000\000\000\000\000\000Z\002\000\000\000\000\000\000\300\000\000\000\000\000\000\000\333\002\000\000\000\000\000\000I\002\000\000\000\000\000\000;-\000\000\000\000\000\000\350\000\000\000\000\000\000\000u\001\000\000\000\000\000\000<\000\000\000\000\000\000\000\227\020\000\000\000\000\000\000\261\022\000\000\000\000\000\000c\001\000\000\000\000\000\000M\003\000\000\000\000\000\000M\000\000\000\000\000\000\000\030\000\000\000\000\000\000\000x\017\000\000\000\000\000\000D\000\000\000\000\000\000\000}\000\000\000\000\000\000\000\3247\000\000\000\000\000\000\352\n\000\000\000\000\000\000G\000\000\000\000\000\000\000\335\000\000\000\000\000\000\000\304\001\000\000\000\000\000\000\\\002\000\000\000\000\000\000\200\003\000\000\000\000\000\000%\007\000\000\000\000\000\000\346\006\000\000\000\000\000\000\361\003\000\000\000\000\000\000e\000\000\000\000\000\000\000\030\010\000\000\000\000\000\000k.\000\000\000\000\000\000\255\001\000\000\000\000\000\000\222\001\000\000\000\000\000\000\250\001\000\000\000\000\000\000K\006\000\000\000\000\000\000i\004\000\000\000\000\000\0004\000\000\000\000\000\000\000\377\377\377\377\377\377\377\377\032\004\000\000\000\000\000\000\246\000\000\000\000\000\000\000L\000\000\000\000\000\000\000E\001\000\000\000\000\000\000\001\002\000\000\000\000\000\000\201\002\000\000\000\000\000\000-?\000\000\000\000\000\000\244\000\000\000\000\000\000\000`\000\000\000\000\000\000\000#\001\000\000\000\000\000\000!\n\000\000\000\000\000\000\351\000\000\000\000\000\000\000=\006\000\000\000\000\000\000\361\002\000\000\000\000\000\000\312\005\000\000\000\000\000\000\210\205\000\000\000\000\000\000\014\036\000\000\000\000\000\000\031\013\000\000\000\000\000\0003\000\000\000\000\000\000\000\276\005\000\000\000\000\000\000\257\034\000\000\000\000\000\000\306?\000\000\000\000\000\000.\001\000\000\000\000\000\000N\001\000\000\000\000\000\000)\005\000\000\000\000\000\000\035\000\000\000\000\000\000\000p\010\000\000\000\000\000\000#\001\000\000\000\000\000\000<\000\000\000\000\000\000\000\032\n\000\000\000\000\000\000\r\001\000\000\000\000\000\000D\005\000\000\000\000\000\000B\004\000\000\000\000\000\000\214\002\000\000\000\000\000\000\313\001\000\000\000\000\000\000\314\000\000\000\000\000\000\000W\010\000\000\000\000\000\000\266\001\000\000\000\000\000\000\222\005\000\000\000\000\000\000R\003\000\000\000\000\000\000\302\006\000\000\000\000\000\000\311R\000\000\000\000\000\000\225\005\000\000\000\000\000\000\263\001\000\000\000\000\000\000\252\003\000\000\000\000\000\000^\240\001\000\000\000\000\000\315\000\000\000\000\000\000\000O\035\000\000\000\000\000\000\273\002\000\000\000\000\000\000v\001\000\000\000\000\000\000\211\001\000\000\000\000\000\000\266\"\000\000\000\000\000\000_\000\000\000\000\000\000\000\312\r\000\000\000\000\000\000\007\000\000\000\000\000\000\000v\000\000\000\000\000\000\000\224\002\000\000\000\000\000\000r\010\000\000\000\000\000\000\003\014\000\000\000\000\000\000\007$\000\000\000\000\000\000\373\002\000\000\000\000\000\000\337\003\000\000\000\000\000\000\021\004\000\000\000\000\000\000g\010\000\000\000\000\000\000v\005\000\000\000\000\000\000l\000\000\000\000\000\000\000P\000\000\000\000\000\000\0007\005\000\000\000\000\000\0000\001\000\000\000\000\000\000\253\"\000\000\000\000\000\000\256\001\000\000\000\000\000\000\341\002\000\000\000\000\000\000\244\000\000\000\000\000\000\000\332\003\000\000\000\000\000\000 \000\000\000\000\000\000\000\255\027\000\000\000\000\000\000\204\000\000\000\000\000\000\0002\000\000\000\000\000\000\000O\000\000\000\000\000\000\000$\001\000\000\000\000\000\000J\005\000\000\000\000\000\000\232\000\000\000\000\000\000\000\315\005\000\000\000\000\000\000N\001\000\000\000\000\000\000%\001\000\000\000\000\000\000\001\001\000\000\000\000\000\000\025$\000\000\000\000\000\000\265\010\000\000\000\000\000\000P\002\000\000\000\000\000\000\264\005\000\000\000\000\000\000\262\000\000\000\000\000\000\000g\000\000\000\000\000\000\000@\000\000\000\000\000\000\000\265\000\000\000\000\000\000\000V\001\000\000\000\000\000\000d\t\000\000\000\000\000\000\324\003\000\000\000\000\000\000\203\000\000\000\000\000\000\000\250\002\000\000\000\000\000\000k\000\000\000\000\000\000\000\214\001\000\000\000\000\000\000\202\n\000\000\000\000\000\000,\000\000\000\000\000\000\000\320\003\000\000\000\000\000\000\336\000\000\000\000\000\000\000%\001\000\000\000\000\000\000R\003\000\000\000\000\000\000\2754\000\000\000\000\000\000\014\004\000\000\000\000\000\000>\000\000\000\000\000\000\000\177\005\000\000\000\000\000\000\325\001\000\000\000\000\000\000\277\000\000\000\000\000\000\000\230\000\000\000\000\000\000\000&\004\000\000\000\000\000\000\230\000\000\000\000\000\000\000\343\000\000\000\000\000\000\000\333\001\000\000\000\000\000\000\027\002\000\000\000\000\000\000\275\000\000\000\000\000\000\000\252\n\000\000\000\000\000\000\256\002\000\000\000\000\000\000\322\001\000\000\000\000\000\000\320\000\000\000\000\000\000\000R\005\000\000\000\000\000\000\203\001\000\000\000\000\000\000*\004\000\000\000\000\000\000\314\002\000\000\000\000\000\000/\002\000\000\000\000\000\000J\016\000\000\000\000\000\000\313\001\000\000\000\000\000\000\003\000\000\000\000\000\000\000O\r\000\000\000\000\000\000o\036\000\000\000\000\000\000\370\007\000\000\000\000\000\000\235\005\000\000\000\000\000\000\030\007\000\000\000\000\000\000b\001\000\000\000\000\000\000\301\000\000\000\000\000\000\000\\\004\000\000\000\000\000\0004\000\000\000\000\000\000\000\377\377\377\377\377\377\377\377e\000\000\000\000\000\000\000\213\322\003\000\000\000\000\000p*\001\000\000\000\000\000\243\027\000\000\000\000\000\000\225\000\000\000\000\000\000\000\343\002\000\000\000\000\000\000B\004\000\000\000\000\000\000,\000\000\000\000\000\000\0004\000\000\000\000\000\000\000\340\003\000\000\000\000\000\0007\001\000\000\000\000\000\000L\003\000\000\000\000\000\000\271\021\000\000\000\000\000\000\202\006\000\000\000\000\000\000\267\001\000\000\000\000\000\000\356\t\000\000\000\000\000\0004\013\000\000\000\000\000\000\275\000\000\000\000\000\000\000\013\001\000\000\000\000\000\0000\000\000\000\000\000\000\000-\001\000\000\000\000\000\000\200\000\000\000\000\000\000\000\223\000\000\000\000\000\000\000\212\001\000\000\000\000\000\000V\002\000\000\000\000\000\000I\001\000\000\000\000\000\000J\005\000\000\000\000\000\000\326\004\000\000\000\000\000\000W\000\000\000\000\000\000\000\316\000\000\000\000\000\000\000$\004\000\000\000\000\000\000\370\004\000\000\000\000\000\000m\020\000\000\000\000\000\000L\000\000\000\000\000\000\000\361\003\000\000\000\000\000\000\323\000\000\000\000\000\000\000\010\001\000\000\000\000\000\000\242\001\000\000\000\000\000\000\242\001\000\000\000\000\000\000\305\\\000\000\000\000\000\000S\001\000\000\000\000\000\0006\002\000\000\000\000\000\000\317\002\000\000\000\000\000\000;\000\000\000\000\000\000\000\220\016\000\000\000\000\000\000\200\001\000\000\000\000\000\000\r\000\000\000\000\000\000\000\342\000\000\000\000\000\000\000\205\003\000\000\000\000\000\000\320\000\000\000\000\000\000\000\245\n\000\000\000\000\000\000a\001\000\000\000\000\000\0008\000\000\000\000\000\000\000\027\001\000\000\000\000\000\000M\034\000\000\000\000\000\000\214\003\000\000\000\000\000\000\344\013\000\000\000\000\000\000\025\006\000\000\000\000\000\000\250\000\000\000\000\000\000\0003\000\000\000\000\000\000\000y\004\000\000\000\000\000\000\330\000\000\000\000\000\000\000\301\010\000\000\000\000\000\000\375\001\000\000\000\000\000\000f[\000\000\000\000\000\000\312\010\000\000\000\000\000\000o\002\000\000\000\000\000\000\254\001\000\000\000\000\000\000\005\001\000\000\000\000\000\000r\000\000\000\000\000\000\000\014\010\000\000\000\000\000\000P\000\000\000\000\000\000\000{\021\000\000\000\000\000\000L\010\000\000\000\000\000\000\210\007\000\000\000\000\000\000u\000\000\000\000\000\000\000\006\t\000\000\000\000\000\000\313\003\000\000\000\000\000\000\365\004\000\000\000\000\000\000I\002\000\000\000\000\000\000C\000\000\000\000\000\000\000r\000\000\000\000\000\000\000\366\000\000\000\000\000\000\000\237\025\000\000\000\000\000\000z\001\000\000\000\000\000\000?\005\000\000\000\000\000\000\031\000\000\000\000\000\000\000.\000\000\000\000\000\000\000\246\000\000\000\000\000\000\000\223\035\000\000\000\000\000\000H\000\000\000\000\000\000\000\211\000\000\000\000\000\000\000\007\013\000\000\000\000\000\000\230\000\000\000\000\000\000\000\017\000\000\000\000\000\000\000_\000\000\000\000\000\000\000\371\t\000\000\000\000\000\000\"\006\000\000\000\000\000\000\360\001\000\000\000\000\000\000\362\000\000\000\000\000\000\000\271\014\000\000\000\000\000\000\375\001\000\000\000\000\000\000\324\002\000\000\000\000\000\000F\001\000\000\000\000\000\000\360\001\000\000\000\000\000\000\020\000\000\000\000\000\000\000h\002\000\000\000\000\000\000u\306\001\000\000\000\000\000\271\003\000\000\000\000\000\000\313\000\000\000\000\000\000\000C\000\000\000\000\000\000\000}\002\000\000\000\000\000\000w\003\000\000\000\000\000\000\335\000\000\000\000\000\000\0001\000\000\000\000\000\000\000\347\005\000\000\000\000\000\000<\000\000\000\000\000\000\000\222\001\000\000\000\000\000\000\2670\000\000\000\000\000\000R\003\000\000\000\000\000\000\372\000\000\000\000\000\000\000Z\032\000\000\000\000\000\000.$\000\000\000\000\000\000C\002\000\000\000\000\000\000\030\000\000\000\000\000\000\000\202\235\000\000\000\000\000\000|\242\000\000\000\000\000\000\303\000\000\000\000\000\000\0006\002\000\000\000\000\000\000\224\002\000\000\000\000\000\000q\022\000\000\000\000\000\000!\000\000\000\000\000\000\000\300\007\000\000\000\000\000\000G\000\000\000\000\000\000\000ZM\000\000\000\000\000\000R\000\000\000\000\000\000\000O\001\000\000\000\000\000\000^\001\000\000\000\000\000\000X\000\000\000\000\000\000\000\322\004\000\000\000\000\000\000\222\000\000\000\000\000\000\000m\001\000\000\000\000\000\000\326\000\000\000\000\000\000\000\037 \000\000\000\000\000\000\240\000\000\000\000\000\000\000DE\000\000\000\000\000\000\210\001\000\000\000\000\000\000<\007\000\000\000\000\000\000\341\002\000\000\000\000\000\000D\000\000\000\000\000\000\000\027\000\000\000\000\000\000\000\227%\000\000\000\000\000\000\275\001\000\000\000\000\000\000\005\007\000\000\000\000\000\000\242\004\000\000\000\000\000\000\335\006\000\000\000\000\000\000\250\002\000\000\000\000\000\000\366\'\000\000\000\000\000\000\267\001\000\000\000\000\000\000H\005\000\000\000\000\000\000E\027\000\000\000\000\000\000\004\001\000\000\000\000\000\000\364\001\000\000\000\000\000\000O\003\000\000\000\000\000\000+\n\000\000\000\000\000\000\345\004\000\000\000\000\000\000~\022\000\000\000\000\000\000\035\002\000\000\000\000\000\000\036\005\000\000\000\000\000\000\030\000\000\000\000\000\000\0008\001\000\000\000\000\000\000\324\001\000\000\000\000\000\000\222\t\000\000\000\000\000\000\230\000\000\000\000\000\000\000\214\000\000\000\000\000\000\000,\002\000\000\000\000\000\000\313\307\000\000\000\000\000\000:\007\000\000\000\000\000\000\323\002\000\000\000\000\000\000v\002\000\000\000\000\000\000\312\000\000\000\000\000\000\000w\021\000\000\000\000\000\000\305\000\000\000\000\000\000\000\325\000\000\000\000\000\000\000?\001\000\000\000\000\000\000\242\001\000\000\000\000\000\000\007A\000\000\000\000\000\000B\000\000\000\000\000\000\000\321\001\000\000\000\000\000\000~\004\000\000\000\000\000\000\350\001\000\000\000\000\000\000\200\007\000\000\000\000\000\0007\000\000\000\000\000\000\000\021\003\000\000\000\000\000\000\204\000\000\000\000\000\000\000\237\000\000\000\000\000\000\000\303\000\000\000\000\000\000\000l\013\000\000\000\000\000\0002\000\000\000\000\000\000\000\222\001\000\000\000\000\000\000\371\000\000\000\000\000\000\000\263\001\000\000\000\000\000\000\325\000\000\000\000\000\000\000\3508\000\000\000\000\000\0005\000\000\000\000\000\000\000\207\000\000\000\000\000\000\000\316\004\000\000\000\000\000\000\237\000\000\000\000\000\000\000\014\001\000\000\000\000\000\000\243\003\000\000\000\000\000\000\201\002\000\000\000\000\000\000x\000\000\000\000\000\000\000K\001\000\000\000\000\000\000\330\007\000\000\000\000\000\000\234\002\000\000\000\000\000\000\360\001\000\000\000\000\000\000n\000\000\000\000\000\000\000\253\007\000\000\000\000\000\000\343\004\000\000\000\000\000\0007\000\000\000\000\000\000\0000\000\000\000\000\000\000\000\203\004\000\000\000\000\000\000\263\016\000\000\000\000\000\000\316\t\000\000\000\000\000\000m\001\000\000\000\000\000\000\377\000\000\000\000\000\000\000J\000\000\000\000\000\000\000]\000\000\000\000\000\000\000(\002\000\000\000\000\000\000\336\000\000\000\000\000\000\000r\001\000\000\000\000\000\000p\000\000\000\000\000\000\0006\000\000\000\000\000\000\000\246!\000\000\000\000\000\0002\000\000\000\000\000\000\000\t\004\000\000\000\000\000\000f\004\000\000\000\000\000\000\212\020\000\000\000\000\000\000\376\000\000\000\000\000\000\000\250\001\000\000\000\000\000\000P\000\000\000\000\000\000\000\217\002\000\000\000\000\000\000R\035\000\000\000\000\000\000E\004\000\000\000\000\000\000\355\002\000\000\000\000\000\000)\004\000\000\000\000\000\000\323\002\000\000\000\000\000\000\030\002\000\000\000\000\000\000\006f\000\000\000\000\000\000\376\007\000\000\000\000\000\000V\001\000\000\000\000\000\000P\000\000\000\000\000\000\000\222\003\000\000\000\000\000\000\216\005\000\000\000\000\000\000Y\003\000\000\000\000\000\000._\000\000\000\000\000\0000\001\000\000\000\000\000\0009\000\000\000\000\000\000\000\230\000\000\000\000\000\000\000\242\034\000\000\000\000\000\000\021\014\000\000\000\000\000\000\207\000\000\000\000\000\000\000\031\000\000\000\000\000\000\000\253\003\000\000\000\000\000\000|*\000\000\000\000\000\000\032\000\000\000\000\000\000\000|\017\000\000\000\000\000\000\303\000\000\000\000\000\000\000A\000\000\000\000\000\000\000\271\003\000\000\000\000\000\000\323\007\000\000\000\000\000\0001\002\000\000\000\000\000\000\'\002\000\000\000\000\000\000\334\005\000\000\000\000\000\000C\000\000\000\000\000\000\000P\000\000\000\000\000\000\000\214\006\000\000\000\000\000\000\342\000\000\000\000\000\000\000\307\001\000\000\000\000\000\000j\000\000\000\000\000\000\000\'\001\000\000\000\000\000\000~\000\000\000\000\000\000\000\235\355\000\000\000\000\000\000\003\001\000\000\000\000\000\000H\000\000\000\000\000\000\000\357\025\000\000\000\000\000\000u\002\000\000\000\000\000\000t\000\000\000\000\000\000\000z>\000\000\000\000\000\000\246\004\000\000\000\000\000\000\337\014\000\000\000\000\000\000\355\003\000\000\000\000\000\000\215\022\000\000\000\000\000\000D\010\000\000\000\000\000\000\016\001\000\000\000\000\000\000BN\000\000\000\000\000\000\224\206\000\000\000\000\000\000\266\000\000\000\000\000\000\000\310\000\000\000\000\000\000\000\254x\000\000\000\000\000\000N\000\000\000\000\000\000\000\340\002\000\000\000\000\000\000\342\000\000\000\000\000\000\000\3754\000\000\000\000\000\000o\016\000\000\000\000\000\000\233\002\000\000\000\000\000\000\222\001\000\000\000\000\000\000C\000\000\000\000\000\000\000i\000\000\000\000\000\000\000\251\016\000\000\000\000\000\000\321\002\000\000\000\000\000\000n\000\000\000\000\000\000\000\274\001\000\000\000\000\000\000\377\377\377\377\377\377\377\377f\000\000\000\000\000\000\000q\000\000\000\000\000\000\000r\000\000\000\000\000\000\000K\000\000\000\000\000\000\000\301\007\000\000\000\000\000\000&\000\000\000\000\000\000\000\215\002\000\000\000\000\000\000u\004\000\000\000\000\000\000$\000\000\000\000\000\000\000E\001\000\000\000\000\000\000\235\002\000\000\000\000\000\000C\000\000\000\000\000\000\000\001\001\000\000\000\000\000\000U\003\000\000\000\000\000\000\014\024\000\000\000\000\000\000\320\007\000\000\000\000\000\000D\000\000\000\000\000\000\000\363\000\000\000\000\000\000\000t\000\000\000\000\000\000\000e\000\000\000\000\000\000\000R\000\000\000\000\000\000\000W\001\000\000\000\000\000\000)\003\000\000\000\000\000\0004\004\000\000\000\000\000\000{\036\000\000\000\000\000\000\014\000\000\000\000\000\000\000^\r\000\000\000\000\000\000l\000\000\000\000\000\000\000\3650\000\000\000\000\000\000\361\001\000\000\000\000\000\000\344\t\000\000\000\000\000\000,\000\000\000\000\000\000\000\206\001\000\000\000\000\000\000<\000\000\000\000\000\000\000\020\001\000\000\000\000\000\000\031\033\000\000\000\000\000\000\262\001\000\000\000\000\000\000\357\006\000\000\000\000\000\000?\000\000\000\000\000\000\000\337\000\000\000\000\000\000\000\234\000\000\000\000\000\000\000\032\005\000\000\000\000\000\000\242\000\000\000\000\000\000\000\304\000\000\000\000\000\000\000I\003\000\000\000\000\000\000\263\001\000\000\000\000\000\000\335\000\000\000\000\000\000\000\314\000\000\000\000\000\000\0007\002\000\000\000\000\000\000\017\t\000\000\000\000\000\000\203\000\000\000\000\000\000\000\351\000\000\000\000\000\000\000(\000\000\000\000\000\000\000\274\003\000\000\000\000\000\000-\005\000\000\000\000\000\000S\000\000\000\000\000\000\000\025\014\000\000\000\000\000\000\224\000\000\000\000\000\000\000\310\001\000\000\000\000\000\000\003\001\000\000\000\000\000\000y\n\000\000\000\000\000\000\313\t\000\000\000\000\000\000\255\000\000\000\000\000\000\000\261\021\000\000\000\000\000\000\200\000\000\000\000\000\000\000o\001\000\000\000\000\000\000_\010\000\000\000\000\000\000\372\000\000\000\000\000\000\000\225\000\000\000\000\000\000\000?\002\000\000\000\000\000\000\014\002\000\000\000\000\000\000\311\010\000\000\000\000\000\000w\004\000\000\000\000\000\000!\000\000\000\000\000\000\000\322\000\000\000\000\000\000\000y\021\000\000\000\000\000\000\006\002\000\000\000\000\000\000\217\000\000\000\000\000\000\000;\004\000\000\000\000\000\000\234\000\000\000\000\000\000\000Y\000\000\000\000\000\000\000\010\001\000\000\000\000\000\000\215\001\000\000\000\000\000\000\001\006\000\000\000\000\000\000+\000\000\000\000\000\000\000m\016\000\000\000\000\000\000\024\'\000\000\000\000\000\000\222\t\000\000\000\000\000\000\323\001\000\000\000\000\000\000A\t\000\000\000\000\000\000\210\000\000\000\000\000\000\000&\001\000\000\000\000\000\000\r\003\000\000\000\000\000\000\034\036\000\000\000\000\000\000\n\001\000\000\000\000\000\000\320\001\000\000\000\000\000\000\326\001\000\000\000\000\000\000f\000\000\000\000\000\000\000\205\026\000\000\000\000\000\000\302\004\000\000\000\000\000\000\224\000\000\000\000\000\000\0003\000\000\000\000\000\000\000J\000\000\000\000\000\000\000X\004\000\000\000\000\000\000\375\000\000\000\000\000\000\000\227\001\000\000\000\000\000\000\311\000\000\000\000\000\000\000\001\034\000\000\000\000\000\0003\000\000\000\000\000\000\000#\000\000\000\000\000\000\000\270\000\000\000\000\000\000\000\275\000\000\000\000\000\000\000:\t\000\000\000\000\000\000w\002\000\000\000\000\000\000\247\001\000\000\000\000\000\000T\003\000\000\000\000\000\000\350\000\000\000\000\000\000\000\247\001\000\000\000\000\000\000\330\001\000\000\000\000\000\0005\002\000\000\000\000\000\000\316\000\000\000\000\000\000\000G\001\000\000\000\000\000\000\026\000\000\000\000\000\000\000\221\000\000\000\000\000\000\000\t\004\000\000\000\000\000\000\343\001\000\000\000\000\000\000\366\003\000\000\000\000\000\000<\007\000\000\000\000\000\000M\000\000\000\000\000\000\000\361\000\000\000\000\000\000\000a\030\000\000\000\000\000\000\301\007\000\000\000\000\000\000\257\003\000\000\000\000\000\000d\n\000\000\000\000\000\000\314\r\000\000\000\000\000\0000\000\000\000\000\000\000\000p\004\000\000\000\000\000\000\023\006\000\000\000\000\000\000L\001\000\000\000\000\000\000\272\000\000\000\000\000\000\000\314\030\000\000\000\000\000\000\\\000\000\000\000\000\000\000l\000\000\000\000\000\000\000X\000\000\000\000\000\000\000j\000\000\000\000\000\000\000l\000\000\000\000\000\000\000Q\005\000\000\000\000\000\000s\243\000\000\000\000\000\000\032\001\000\000\000\000\000\000IW\000\000\000\000\000\000\217\003\000\000\000\000\000\000/\002\000\000\000\000\000\000\031\002\000\000\000\000\000\000\035!\000\000\000\000\000\000\037\002\000\000\000\000\000\000\016\000\000\000\000\000\000\000+\000\000\000\000\000\000\000i\000\000\000\000\000\000\000\246\022\000\000\000\000\000\000\341\001\000\000\000\000\000\000\006\000\000\000\000\000\000\0005\000\000\000\000\000\000\0006\006\000\000\000\000\000\0007\000\000\000\000\000\000\000\206\001\000\000\000\000\000\000\213\000\000\000\000\000\000\000\006\002\000\000\000\000\000\000k\001\000\000\000\000\000\000\034\245\000\000\000\000\000\000\366\007\000\000\000\000\000\000\345;\000\000\000\000\000\000\r\000\000\000\000\000\000\000,\001\000\000\000\000\000\000@\000\000\000\000\000\000\000\r\007\000\000\000\000\000\000\r\002\000\000\000\000\000\000\003N\000\000\000\000\000\000C\000\000\000\000\000\000\000B\000\000\000\000\000\000\000$\000\000\000\000\000\000\000<\002\000\000\000\000\000\000\217\003\000\000\000\000\000\000*\010\000\000\000\000\000\000<\000\000\000\000\000\000\000@\002\000\000\000\000\000\000\266\001\000\000\000\000\000\000,\022\000\000\000\000\000\000\361\004\000\000\000\000\000\000\353\000\000\000\000\000\000\000;\000\000\000\000\000\000\000\017\002\000\000\000\000\000\000V\000\000\000\000\000\000\000Y\001\000\000\000\000\000\000\367\001\000\000\000\000\000\000,\001\000\000\000\000\000\000\201\000\000\000\000\000\000\000r*\000\000\000\000\000\000p\000\000\000\000\000\000\000\364\000\000\000\000\000\000\000\215O\000\000\000\000\000\000\347\000\000\000\000\000\000\000\203\002\000\000\000\000\000\000-\001\000\000\000\000\000\000\207\002\000\000\000\000\000\000\345\000\000\000\000\000\000\0003\000\000\000\000\000\000\000K\000\000\000\000\000\000\000\320,\000\000\000\000\000\000$\005\000\000\000\000\000\000\364\002\000\000\000\000\000\000\343\000\000\000\000\000\000\000\205\003\000\000\000\000\000\000C\000\000\000\000\000\000\000\375\001\000\000\000\000\000\000\215\033\000\000\000\000\000\0005\000\000\000\000\000\000\000z\000\000\000\000\000\000\000\367\000\000\000\000\000\000\000e\001\000\000\000\000\000\000m\000\000\000\000\000\000\0008\202\000\000\000\000\000\000L\000\000\000\000\000\000\000,\000\000\000\000\000\000\000\006%\000\000\000\000\000\000\245\001\000\000\000\000\000\000\334\014\000\000\000\000\000\000;\013\000\000\000\000\000\000\216_\000\000\000\000\000\000\251\001\000\000\000\000\000\000\034\000\000\000\000\000\000\000\355\001\000\000\000\000\000\000\344\000\000\000\000\000\000\000\274\000\000\000\000\000\000\000\003\000\000\000\000\000\000\000L\002\000\000\000\000\000\000\027\r\000\000\000\000\000\000h\000\000\000\000\000\000\000\224\002\000\000\000\000\000\000\023\004\000\000\000\000\000\000\n\017\000\000\000\000\000\000A\000\000\000\000\000\000\0004\000\000\000\000\000\000\000s\005\000\000\000\000\000\000a\001\000\000\000\000\000\000\035\000\000\000\000\000\000\000w\002\000\000\000\000\000\000\260\000\000\000\000\000\000\000\277\003\000\000\000\000\000\000\341\007\000\000\000\000\000\000m\002\000\000\000\000\000\000\354\001\000\000\000\000\000\000]\000\000\000\000\000\000\000\230\000\000\000\000\000\000\000\200\007\000\000\000\000\000\000/\000\000\000\000\000\000\000\277\010\000\000\000\000\000\000B\001\000\000\000\000\000\000\345\000\000\000\000\000\000\000\034\005\000\000\000\000\000\000B\000\000\000\000\000\000\000\024\000\000\000\000\000\000\000\210\003\000\000\000\000\000\000\202\002\000\000\000\000\000\000\272\002\000\000\000\000\000\000H\000\000\000\000\000\000\000h\000\000\000\000\000\000\000\337\014\000\000\000\000\000\000\326\002\000\000\000\000\000\000\001\006\000\000\000\000\000\000\001\000\000\000\000\000\000\000\313\000\000\000\000\000\000\000\027\021\000\000\000\000\000\000)f\000\000\000\000\000\000\201\002\000\000\000\000\000\000\311\003\000\000\000\000\000\000\320\000\000\000\000\000\000\000I\001\000\000\000\000\000\000\304\\\000\000\000\000\000\000\240\003\000\000\000\000\000\000Z\000\000\000\000\000\000\000\3455\000\000\000\000\000\000\001\001\000\000\000\000\000\000\343\232\000\000\000\000\000\000@\001\000\000\000\000\000\000\322\004\000\000\000\000\000\000x\000\000\000\000\000\000\000\334\033\000\000\000\000\000\000\241\000\000\000\000\000\000\000\341\007\000\000\000\000\000\000\263\000\000\000\000\000\000\000F\000\000\000\000\000\000\000\307\000\000\000\000\000\000\000z\000\000\000\000\000\000\000\316\003\000\000\000\000\000\000\310\002\000\000\000\000\000\000\261\002\000\000\000\000\000\000\243\001\000\000\000\000\000\000\323\000\000\000\000\000\000\000\035\004\000\000\000\000\000\000e\000\000\000\000\000\000\000\254\000\000\000\000\000\000\000(\001\000\000\000\000\000\000|\003\000\000\000\000\000\0004\000\000\000\000\000\000\000n\025\000\000\000\000\000\0007\000\000\000\000\000\000\000\307\002\000\000\000\000\000\000\246\001\000\000\000\000\000\000+\003\000\000\000\000\000\000\377\377\377\377\377\377\377\377\277\001\000\000\000\000\000\000\320&\000\000\000\000\000\000\204\000\000\000\000\000\000\000f\024\000\000\000\000\000\000}\000\000\000\000\000\000\000\361\004\000\000\000\000\000\000\332\003\000\000\000\000\000\000`\000\000\000\000\000\000\000:\000\000\000\000\000\000\000\315\004\000\000\000\000\000\000B\000\000\000\000\000\000\000\032\010\000\000\000\000\000\000Z\013\000\000\000\000\000\000\312\001\000\000\000\000\000\000R=\000\000\000\000\000\000\346\000\000\000\000\000\000\000\206\000\000\000\000\000\000\000z\000\000\000\000\000\000\0000\001\000\000\000\000\000\000|\001\000\000\000\000\000\0008\000\000\000\000\000\000\000\220\001\000\000\000\000\000\000\230\000\000\000\000\000\000\000X\000\000\000\000\000\000\000d\000\000\000\000\000\000\000(\000\000\000\000\000\000\000:\000\000\000\000\000\000\000@\013\000\000\000\000\000\000\373\245\000\000\000\000\000\000\206\000\000\000\000\000\000\000\024\002\000\000\000\000\000\000(\003\000\000\000\000\000\000G0\000\000\000\000\000\000\201\000\000\000\000\000\000\000\202\001\000\000\000\000\000\000\014\002\000\000\000\000\000\000\010G\000\000\000\000\000\000\354\003\000\000\000\000\000\000\206\001\000\000\000\000\000\000\231\\\000\000\000\000\000\000\010\203\000\000\000\000\000\000\'\001\000\000\000\000\000\000\301\000\000\000\000\000\000\000\263\000\000\000\000\000\000\000^\002\000\000\000\000\000\000>\000\000\000\000\000\000\000\036\002\000\000\000\000\000\000\360\000\000\000\000\000\000\000\341\000\000\000\000\000\000\000\020\000\000\000\000\000\000\000\212\001\000\000\000\000\000\000\002\037\000\000\000\000\000\000`\000\000\000\000\000\000\000+\007\000\000\000\000\000\000\300\003\000\000\000\000\000\000u\227\000\000\000\000\000\0007\013\000\000\000\000\000\000\313\005\000\000\000\000\000\000\234\002\000\000\000\000\000\000\203\005\000\000\000\000\000\000X\001\000\000\000\000\000\000@\006\000\000\000\000\000\000V\233\000\000\000\000\000\000\247\010\000\000\000\000\000\000l\000\000\000\000\000\000\000\257\000\000\000\000\000\000\000C\010\000\000\000\000\000\000\326\013\000\000\000\000\000\000\032\000\000\000\000\000\000\000\264\004\000\000\000\000\000\0006\000\000\000\000\000\000\000j\001\000\000\000\000\000\000,\002\000\000\000\000\000\000j\000\000\000\000\000\000\000\331=\000\000\000\000\000\000O\001\000\000\000\000\000\0005\000\000\000\000\000\000\000\033\022\000\000\000\000\000\000z\001\000\000\000\000\000\000f\005\000\000\000\000\000\000\350\001\000\000\000\000\000\000n\001\000\000\000\000\000\0008\000\000\000\000\000\000\000r\000\000\000\000\000\000\000\273\000\000\000\000\000\000\000\333\000\000\000\000\000\000\000G\003\000\000\000\000\000\000-\002\000\000\000\000\000\000\"\003\000\000\000\000\000\000z\001\000\000\000\000\000\000\333\001\000\000\000\000\000\000G\t\000\000\000\000\000\0000\000\000\000\000\000\000\0003\000\000\000\000\000\000\000\255D\000\000\000\000\000\000\352\000\000\000\000\000\000\000D\001\000\000\000\000\000\000\257\004\000\000\000\000\000\000v\'\000\000\000\000\000\000@\000\000\000\000\000\000\000.\001\000\000\000\000\000\000B\001\000\000\000\000\000\000)\024\000\000\000\000\000\000\215\001\000\000\000\000\000\000L\001\000\000\000\000\000\000\230\n\000\000\000\000\000\000\227\000\000\000\000\000\000\000\210\000\000\000\000\000\000\000g\004\000\000\000\000\000\0006\002\000\000\000\000\000\000\211\000\000\000\000\000\000\000U\000\000\000\000\000\000\000\231\032\000\000\000\000\000\000\231\001\000\000\000\000\000\000x\003\000\000\000\000\000\000.\002\000\000\000\000\000\000\225\000\000\000\000\000\000\000 \000\000\000\000\000\000\000s\000\000\000\000\000\000\000\356\000\000\000\000\000\000\000\007,\000\000\000\000\000\000.\000\000\000\000\000\000\000\230\000\000\000\000\000\000\000\003\002\000\000\000\000\000\000\224\000\000\000\000\000\000\000*\005\000\000\000\000\000\000t\001\000\000\000\000\000\000\232\000\000\000\000\000\000\000Z\001\000\000\000\000\000\000\212\002\000\000\000\000\000\000\270\001\000\000\000\000\000\000T\n\000\000\000\000\000\000\214\005\000\000\000\000\000\000Y\001\000\000\000\000\000\000\250\000\000\000\000\000\000\0007\000\000\000\000\000\000\000\033\000\000\000\000\000\000\0000\004\000\000\000\000\000\000\207\000\000\000\000\000\000\000\253\000\000\000\000\000\000\0001\010\000\000\000\000\000\000\035\000\000\000\000\000\000\0001\023\000\000\000\000\000\000D\000\000\000\000\000\000\000{\001\000\000\000\000\000\000F\000\000\000\000\000\000\000\025\004\000\000\000\000\000\000\266\000\000\000\000\000\000\000\371\000\000\000\000\000\000\000\310\002\000\000\000\000\000\000\301\010\000\000\000\000\000\000\211\000\000\000\000\000\000\000 \000\000\000\000\000\000\000WQ\000\000\000\000\000\000_T\000\000\000\000\000\000b\000\000\000\000\000\000\0002\002\000\000\000\000\000\000\024\001\000\000\000\000\000\000~\001\000\000\000\000\000\000\302\032\000\000\000\000\000\000\215\000\000\000\000\000\000\000MH\000\000\000\000\000\000;\000\000\000\000\000\000\000x\017\000\000\000\000\000\000K\000\000\000\000\000\000\000\250\010\000\000\000\000\000\000S\000\000\000\000\000\000\000\370\001\000\000\000\000\000\000a\001\000\000\000\000\000\000\276\000\000\000\000\000\000\000\025\013\000\000\000\000\000\0007\000\000\000\000\000\000\000\373\264\000\000\000\000\000\000\351\000\000\000\000\000\000\000\013\000\000\000\000\000\000\000`\000\000\000\000\000\000\000\346\001\000\000\000\000\000\000\236%\000\000\000\000\000\000k\002\000\000\000\000\000\000m\005\000\000\000\000\000\000}\002\000\000\000\000\000\000J\n\000\000\000\000\000\0002\000\000\000\000\000\000\0006\000\000\000\000\000\000\000\023\000\000\000\000\000\000\000\214\001\000\000\000\000\000\000\271\000\000\000\000\000\000\000\372\001\000\000\000\000\000\000c\001\000\000\000\000\000\000\360\001\000\000\000\000\000\000q\000\000\000\000\000\000\000\035\000\000\000\000\000\000\000&\003\000\000\000\000\000\000\251\000\000\000\000\000\000\000o\000\000\000\000\000\000\0002\t\000\000\000\000\000\000\013\000\000\000\000\000\000\000\233\272\002\000\000\000\000\000\227(\000\000\000\000\000\000\362\005\000\000\000\000\000\000;\005\000\000\000\000\000\000\345\001\000\000\000\000\000\000\347R\000\000\000\000\000\000\203\001\000\000\000\000\000\000\253\000\000\000\000\000\000\000}\001\000\000\000\000\000\000b\000\000\000\000\000\000\0003\000\000\000\000\000\000\000\230\007\000\000\000\000\000\000\227\000\000\000\000\000\000\000\223\014\000\000\000\000\000\000\332\001\000\000\000\000\000\000l\000\000\000\000\000\000\000\357\002\000\000\000\000\000\000\341\001\000\000\000\000\000\0006\010\000\000\000\000\000\000Y\001\000\000\000\000\000\000>\002\000\000\000\000\000\000g\017\000\000\000\000\000\000\217\000\000\000\000\000\000\000\267\000\000\000\000\000\000\000w\016\000\000\000\000\000\000\346\000\000\000\000\000\000\000\374\000\000\000\000\000\000\000\"\023\000\000\000\000\000\000\256:\000\000\000\000\000\000\017\004\000\000\000\000\000\000\027\000\000\000\000\000\000\000\215\002\000\000\000\000\000\0000\000\000\000\000\000\000\000m\022\000\000\000\000\000\000(\000\000\000\000\000\000\000Z\023\000\000\000\000\000\000\226\000\000\000\000\000\000\000B\021\000\000\000\000\000\000\256\000\000\000\000\000\000\000\341\002\000\000\000\000\000\000u\020\000\000\000\000\000\000(\000\000\000\000\000\000\000\237\013\000\000\000\000\000\000\036\004\000\000\000\000\000\000\341\000\000\000\000\000\000\000z\000\000\000\000\000\000\000G\001\000\000\000\000\000\000B\002\000\000\000\000\000\000\357\001\000\000\000\000\000\000\033\000\000\000\000\000\000\000Y\000\000\000\000\000\000\000y\022\000\000\000\000\000\000\277\030\000\000\000\000\000\000\"\003\000\000\000\000\000\000o\002\000\000\000\000\000\000\237\000\000\000\000\000\000\000\355\036\000\000\000\000\000\000B\000\000\000\000\000\000\000\'\002\000\000\000\000\000\000\024\006\000\000\000\000\000\000\311\001\000\000\000\000\000\000\231\013\000\000\000\000\000\000\251\000\000\000\000\000\000\000\312\004\000\000\000\000\000\000\250\000\000\000\000\000\000\000\203\003\000\000\000\000\000\0005\000\000\000\000\000\000\000\"\n\000\000\000\000\000\000\211-\000\000\000\000\000\000&\000\000\000\000\000\000\000\242\024\000\000\000\000\000\0008\000\000\000\000\000\000\000\377\377\377\377\377\377\377\377\324\000\000\000\000\000\000\000\272\004\000\000\000\000\000\000;\000\000\000\000\000\000\000\370\000\000\000\000\000\000\000C\000\000\000\000\000\000\000,n\002\000\000\000\000\000\376\000\000\000\000\000\000\000\005\001\000\000\000\000\000\000\206\002\000\000\000\000\000\000\360\037\000\000\000\000\000\000\002\001\000\000\000\000\000\000\240\000\000\000\000\000\000\000\361\032\000\000\000\000\000\000T\001\000\000\000\000\000\000\247\000\000\000\000\000\000\000o\000\000\000\000\000\000\000\342\002\000\000\000\000\000\000_\001\000\000\000\000\000\000D\001\000\000\000\000\000\000F\000\000\000\000\000\000\000\336\005\000\000\000\000\000\000\207\000\000\000\000\000\000\000?\013\000\000\000\000\000\000\030\035\000\000\000\000\000\000\307\032\000\000\000\000\000\000+\001\000\000\000\000\000\000\017\001\000\000\000\000\000\000\351\001\000\000\000\000\000\000\013\032\000\000\000\000\000\000\354\007\000\000\000\000\000\000\230\001\000\000\000\000\000\000<\000\000\000\000\000\000\000\217\002\000\000\000\000\000\000u\000\000\000\000\000\000\000\344\002\000\000\000\000\000\0006\004\000\000\000\000\000\000A\000\000\000\000\000\000\000>\000\000\000\000\000\000\000\253\013\000\000\000\000\000\000\376\005\000\000\000\000\000\000\260\006\000\000\000\000\000\000\014\003\000\000\000\000\000\000\340\003\000\000\000\000\000\000<\001\000\000\000\000\000\0004\000\000\000\000\000\000\000\256\000\000\000\000\000\000\000\323\001\000\000\000\000\000\000\260\010\000\000\000\000\000\000\365\007\000\000\000\000\000\0005\000\000\000\000\000\000\000\027\001\000\000\000\000\000\000\271\001\000\000\000\000\000\000\310\001\000\000\000\000\000\000\007\001\000\000\000\000\000\000\241\001\000\000\000\000\000\000D\005\000\000\000\000\000\000\016\004\000\000\000\000\000\000j\005\000\000\000\000\000\000V\000\000\000\000\000\000\000#\001\000\000\000\000\000\000\010\004\000\000\000\000\000\000\266\010\000\000\000\000\000\000{%\000\000\000\000\000\000\016\000\000\000\000\000\000\000!\007\000\000\000\000\000\000\260\000\000\000\000\000\000\000\n\220\000\000\000\000\000\000\236\001\000\000\000\000\000\000\025\001\000\000\000\000\000\000B\002\000\000\000\000\000\000\013\001\000\000\000\000\000\000\300\006\000\000\000\000\000\000?\001\000\000\000\000\000\000\303\000\000\000\000\000\000\0003\005\000\000\000\000\000\0007\000\000\000\000\000\000\0004\000\000\000\000\000\000\000l\000\000\000\000\000\000\000\352\021\000\000\000\000\000\000"
      }
    }
  }
}
node {
  name: "tensors/component_3"
  op: "Const"
  device: "/device:CPU:0"
  attr {
    key: "_output_shapes"
    value {
      list {
        shape {
          dim {
            size: 1192
          }
        }
      }
    }
  }
  attr {
    key: "dtype"
    value {
      type: DT_INT64
    }
  }
  attr {
    key: "value"
    value {
      tensor {
        dtype: DT_INT64
        tensor_shape {
          dim {
            size: 1192
          }
        }
